// nirvana_model_data.h
// Auto-generated from nirvana_dual_model.tflite
// Model size: 5960 bytes (5.82 KB)
// Inputs : 11 normalized features
// Outputs: [1,3] risk level softmax | [1,1] WSI score (x100)

#ifndef NIRVANA_MODEL_DATA_H
#define NIRVANA_MODEL_DATA_H

const unsigned char nirvana_model_data[] = {
  0x1c, 0x00, 0x00, 0x00, 0x54, 0x46, 0x4c, 0x33, 0x14, 0x00, 0x20, 0x00, 0x1c, 0x00, 0x18, 0x00, 0x14, 0x00, 0x10, 0x00, 0x0c, 0x00, 0x00, 0x00, 0x08, 0x00, 0x04, 0x00, 0x14, 0x00, 0x00, 0x00, 0x1c, 0x00, 0x00, 0x00, 0xac, 0x00, 0x00, 0x00, 0x04, 0x01, 0x00, 0x00, 0xdc, 0x06, 0x00, 0x00, 0xec, 0x06, 0x00, 0x00, 0x98, 0x16, 0x00, 0x00, 0x03, 0x00, 0x00, 0x00, 0x01, 0x00, 0x00, 0x00, 0x04, 0x00, 0x00, 0x00, 0x4e, 0xf8, 0xff, 0xff, 0x0c, 0x00, 0x00, 0x00, 0x1c, 0x00, 0x00, 0x00, 0x5c, 0x00, 0x00, 0x00, 0x0f, 0x00, 0x00, 0x00, 0x73, 0x65, 0x72, 0x76, 0x69, 0x6e, 0x67, 0x5f, 0x64, 0x65, 0x66, 0x61, 0x75, 0x6c, 0x74, 0x00, 0x02, 0x00, 0x00, 0x00, 0x24, 0x00, 0x00, 0x00, 0x04, 0x00, 0x00, 0x00, 0x74, 0xff, 0xff, 0xff, 0x11, 0x00, 0x00, 0x00, 0x04, 0x00, 0x00, 0x00, 0x08, 0x00, 0x00, 0x00, 0x6f, 0x75, 0x74, 0x70, 0x75, 0x74, 0x5f, 0x31, 0x00, 0x00, 0x00, 0x00, 0x90, 0xff, 0xff, 0xff, 0x0e, 0x00, 0x00, 0x00, 0x04, 0x00, 0x00, 0x00, 0x08, 0x00, 0x00, 0x00, 0x6f, 0x75, 0x74, 0x70, 0x75, 0x74, 0x5f, 0x30, 0x00, 0x00, 0x00, 0x00, 0x01, 0x00, 0x00, 0x00, 0x04, 0x00, 0x00, 0x00, 0x7a, 0xf8, 0xff, 0xff, 0x04, 0x00, 0x00, 0x00, 0x0e, 0x00, 0x00, 0x00, 0x6b, 0x65, 0x72, 0x61, 0x73, 0x5f, 0x74, 0x65, 0x6e, 0x73, 0x6f, 0x72, 0x5f, 0x34, 0x00, 0x00, 0x02, 0x00, 0x00, 0x00, 0x34, 0x00, 0x00, 0x00, 0x04, 0x00, 0x00, 0x00, 0xdc, 0xff, 0xff, 0xff, 0x14, 0x00, 0x00, 0x00, 0x04, 0x00, 0x00, 0x00, 0x13, 0x00, 0x00, 0x00, 0x43, 0x4f, 0x4e, 0x56, 0x45, 0x52, 0x53, 0x49, 0x4f, 0x4e, 0x5f, 0x4d, 0x45, 0x54, 0x41, 0x44, 0x41, 0x54, 0x41, 0x00, 0x08, 0x00, 0x0c, 0x00, 0x08, 0x00, 0x04, 0x00, 0x08, 0x00, 0x00, 0x00, 0x13, 0x00, 0x00, 0x00, 0x04, 0x00, 0x00, 0x00, 0x13, 0x00, 0x00, 0x00, 0x6d, 0x69, 0x6e, 0x5f, 0x72, 0x75, 0x6e, 0x74, 0x69, 0x6d, 0x65, 0x5f, 0x76, 0x65, 0x72, 0x73, 0x69, 0x6f, 0x6e, 0x00, 0x15, 0x00, 0x00, 0x00, 0xd4, 0x05, 0x00, 0x00, 0xcc, 0x05, 0x00, 0x00, 0xb8, 0x05, 0x00, 0x00, 0x98, 0x05, 0x00, 0x00, 0x7c, 0x05, 0x00, 0x00, 0x3c, 0x05, 0x00, 0x00, 0xec, 0x04, 0x00, 0x00, 0xdc, 0x02, 0x00, 0x00, 0x4c, 0x02, 0x00, 0x00, 0xdc, 0x00, 0x00, 0x00, 0xd4, 0x00, 0x00, 0x00, 0xcc, 0x00, 0x00, 0x00, 0xc4, 0x00, 0x00, 0x00, 0xbc, 0x00, 0x00, 0x00, 0xb4, 0x00, 0x00, 0x00, 0xac, 0x00, 0x00, 0x00, 0xa4, 0x00, 0x00, 0x00, 0x9c, 0x00, 0x00, 0x00, 0x94, 0x00, 0x00, 0x00, 0x74, 0x00, 0x00, 0x00, 0x04, 0x00, 0x00, 0x00, 0x4a, 0xf9, 0xff, 0xff, 0x04, 0x00, 0x00, 0x00, 0x60, 0x00, 0x00, 0x00, 0x0c, 0x00, 0x00, 0x00, 0x08, 0x00, 0x0e, 0x00, 0x08, 0x00, 0x04, 0x00, 0x08, 0x00, 0x00, 0x00, 0x10, 0x00, 0x00, 0x00, 0x28, 0x00, 0x00, 0x00, 0x00, 0x00, 0x06, 0x00, 0x08, 0x00, 0x04, 0x00, 0x06, 0x00, 0x00, 0x00, 0x04, 0x00, 0x00, 0x00, 0x01, 0x00, 0x00, 0x00, 0xeb, 0x03, 0x00, 0x00, 0x0c, 0x00, 0x18, 0x00, 0x14, 0x00, 0x10, 0x00, 0x0c, 0x00, 0x04, 0x00, 0x0c, 0x00, 0x00, 0x00, 0xca, 0x9a, 0x62, 0x65, 0x8c, 0x6e, 0xd6, 0xfc, 0x02, 0x00, 0x00, 0x00, 0x02, 0x00, 0x00, 0x00, 0x04, 0x00, 0x00, 0x00, 0x06, 0x00, 0x00, 0x00, 0x32, 0x2e, 0x32, 0x30, 0x2e, 0x30, 0x00, 0x00, 0xb6, 0xf9, 0xff, 0xff, 0x04, 0x00, 0x00, 0x00, 0x10, 0x00, 0x00, 0x00, 0x31, 0x2e, 0x31, 0x34, 0x2e, 0x30, 0x00, 0x00, 0x00, 0x00, 0x00, 0x00, 0x00, 0x00, 0x00, 0x00, 0x7c, 0xeb, 0xff, 0xff, 0x80, 0xeb, 0xff, 0xff, 0x84, 0xeb, 0xff, 0xff, 0x88, 0xeb, 0xff, 0xff, 0x8c, 0xeb, 0xff, 0xff, 0x90, 0xeb, 0xff, 0xff, 0x94, 0xeb, 0xff, 0xff, 0x98, 0xeb, 0xff, 0xff, 0x9c, 0xeb, 0xff, 0xff, 0xf6, 0xf9, 0xff, 0xff, 0x04, 0x00, 0x00, 0x00, 0x60, 0x01, 0x00, 0x00, 0x1a, 0x19, 0x40, 0xad, 0xce, 0xb3, 0xb6, 0x7f, 0xc9, 0x31, 0x64, 0x7f, 0xcd, 0x0e, 0xc3, 0x03, 0x10, 0x22, 0xcb, 0xed, 0x10, 0x43, 0x7f, 0x30, 0x86, 0xce, 0xd1, 0x57, 0xe9, 0xa7, 0x13, 0xc4, 0xe2, 0xb2, 0xf8, 0x7f, 0x3e, 0xbf, 0xed, 0xfb, 0x48, 0x07, 0xc2, 0xcf, 0xa6, 0x11, 0xfd, 0x9d, 0x34, 0x0a, 0x39, 0x9d, 0x01, 0x10, 0x81, 0x2d, 0xe5, 0x8e, 0x6c, 0x32, 0x05, 0x58, 0xf6, 0x81, 0x13, 0x1f, 0x17, 0x61, 0xad, 0xb9, 0xcd, 0xf1, 0xf0, 0x15, 0x4b, 0x81, 0xed, 0xdd, 0xf8, 0xc0, 0xf5, 0xe5, 0x81, 0x13, 0x04, 0xd5, 0x89, 0xa9, 0xa0, 0x64, 0x08, 0xbe, 0xd8, 0xf3, 0xf2, 0x65, 0x19, 0x29, 0x81, 0x38, 0xcc, 0x26, 0x52, 0xd0, 0x0c, 0xe9, 0x81, 0x44, 0x0f, 0xbf, 0x0f, 0x0e, 0x17, 0x02, 0x08, 0x4e, 0x05, 0xc9, 0xe7, 0xc0, 0x7f, 0x1c, 0x68, 0x04, 0x81, 0xfc, 0xb5, 0x98, 0x07, 0xc7, 0x06, 0xde, 0xbe, 0x23, 0x48, 0x9d, 0x23, 0x2b, 0x0e, 0x81, 0xdf, 0xdb, 0xa7, 0x06, 0x81, 0xff, 0xf5, 0xfb, 0x2e, 0x19, 0x13, 0x0f, 0xc1, 0xd6, 0x8f, 0x58, 0x0b, 0x9c, 0xbb, 0x81, 0x2c, 0x1e, 0x0a, 0x48, 0x2f, 0x39, 0xd8, 0x40, 0x16, 0x14, 0x05, 0x17, 0x81, 0xdb, 0x3a, 0xd6, 0xe9, 0xfc, 0x00, 0x48, 0xd8, 0xf1, 0x9d, 0x81, 0x2d, 0xe2, 0x64, 0xf4, 0x2e, 0x1a, 0x57, 0x13, 0xc7, 0x2a, 0x7f, 0x27, 0xe1, 0xe6, 0xd2, 0x01, 0xe5, 0x9b, 0xd4, 0x7a, 0x78, 0x7f, 0x3a, 0xcb, 0xa5, 0x1f, 0x4d, 0x5e, 0xf9, 0x5c, 0xf8, 0x6b, 0x26, 0x7f, 0x06, 0x05, 0x79, 0xd5, 0x36, 0xa7, 0x25, 0x7f, 0x48, 0xda, 0x4e, 0x66, 0x05, 0x81, 0xd5, 0xa0, 0x62, 0x74, 0x0e, 0x0b, 0xe2, 0x0b, 0x32, 0x42, 0xbc, 0xc6, 0x46, 0x4f, 0xee, 0xf2, 0x4f, 0x38, 0x4e, 0x17, 0x7f, 0x67, 0x02, 0xf4, 0xb3, 0x81, 0xc8, 0x56, 0xc3, 0xc8, 0x0b, 0xfe, 0x81, 0xf0, 0xd9, 0x1b, 0x0e, 0xbb, 0x3b, 0x84, 0x23, 0xcd, 0x7d, 0x0f, 0x5a, 0xfc, 0xc7, 0x1e, 0x12, 0xf3, 0x82, 0x41, 0x37, 0x7f, 0x10, 0xdc, 0x03, 0x5d, 0xf9, 0x0a, 0xf6, 0x00, 0x4b, 0x14, 0x7f, 0xdc, 0x3f, 0x04, 0x58, 0x4f, 0xd6, 0xd9, 0x13, 0x09, 0x7f, 0x14, 0x08, 0x13, 0xa2, 0xcb, 0xe2, 0xe3, 0xf8, 0x81, 0x2f, 0x29, 0xb8, 0x7f, 0xce, 0xf2, 0x42, 0x20, 0x88, 0xc7, 0x3e, 0xb7, 0xdc, 0x19, 0x7f, 0x8f, 0x60, 0x2a, 0x04, 0xf9, 0x32, 0x0a, 0x17, 0xda, 0x7b, 0x23, 0x81, 0x96, 0x73, 0xb3, 0xaf, 0xb7, 0x0c, 0x4f, 0x4d, 0x94, 0x62, 0xfb, 0xff, 0xff, 0x04, 0x00, 0x00, 0x00, 0x80, 0x00, 0x00, 0x00, 0x92, 0x17, 0x00, 0x00, 0x7f, 0x0c, 0x00, 0x00, 0xa6, 0xf3, 0xff, 0xff, 0x0f, 0xfd, 0xff, 0xff, 0xfd, 0x00, 0x00, 0x00, 0xfa, 0xfa, 0xff, 0xff, 0xa8, 0xf1, 0xff, 0xff, 0x46, 0xfc, 0xff, 0xff, 0x87, 0xf3, 0xff, 0xff, 0xa7, 0x0b, 0x00, 0x00, 0x0a, 0x0a, 0x00, 0x00, 0xfe, 0x03, 0x00, 0x00, 0x9e, 0x0b, 0x00, 0x00, 0xdd, 0x02, 0x00, 0x00, 0xce, 0xf8, 0xff, 0xff, 0x4c, 0x0a, 0x00, 0x00, 0xab, 0x06, 0x00, 0x00, 0xf0, 0x09, 0x00, 0x00, 0xe5, 0x19, 0x00, 0x00, 0x6d, 0xfc, 0xff, 0xff, 0xc6, 0xfd, 0xff, 0xff, 0x73, 0x0b, 0x00, 0x00, 0xd9, 0xfa, 0xff, 0xff, 0xb6, 0x0e, 0x00, 0x00, 0x75, 0x12, 0x00, 0x00, 0xd5, 0x0c, 0x00, 0x00, 0x41, 0xee, 0xff, 0xff, 0x0f, 0x02, 0x00, 0x00, 0x0f, 0x0b, 0x00, 0x00, 0xb7, 0x0f, 0x00, 0x00, 0x18, 0xee, 0xff, 0xff, 0x9c, 0x19, 0x00, 0x00, 0xee, 0xfb, 0xff, 0xff, 0x04, 0x00, 0x00, 0x00, 0x00, 0x02, 0x00, 0x00, 0xf7, 0x0f, 0xe8, 0x15, 0xf8, 0xf3, 0x22, 0xfd, 0xd7, 0x3d, 0xeb, 0x18, 0xdd, 0x00, 0xfd, 0x19, 0xde, 0xf9, 0x05, 0xe4, 0xdf, 0x14, 0xa8, 0x2b, 0x2b, 0x54, 0x83, 0x4b, 0xe9, 0x17, 0x81, 0x18, 0x1d, 0xf1, 0xf0, 0xe2, 0xc7, 0x17, 0x17, 0x2d, 0x81, 0x1b, 0xf1, 0xe3, 0xd1, 0xf6, 0xe0, 0xf6, 0x23, 0x13, 0xfd, 0xf9, 0x21, 0xf8, 0x16, 0x31, 0x08, 0xf7, 0xdb, 0xf9, 0xf1, 0x0c, 0x04, 0xf6, 0x1e, 0xdd, 0xe5, 0x19, 0x06, 0xcb, 0xcc, 0x8f, 0xb9, 0x28, 0x22, 0x11, 0xec, 0x09, 0xde, 0x19, 0x44, 0x40, 0x34, 0xd2, 0xe5, 0xf4, 0xab, 0x17, 0x23, 0x3f, 0x8e, 0x3a, 0x3b, 0x16, 0x81, 0x5c, 0x10, 0xd6, 0xd7, 0xe1, 0xd8, 0xf8, 0x0a, 0x1d, 0x9a, 0xf0, 0xb2, 0xb6, 0xf8, 0xd6, 0x6f, 0x1c, 0x6b, 0xdd, 0xf5, 0x40, 0x43, 0xf3, 0x28, 0x7f, 0x66, 0xe6, 0x00, 0x07, 0xfb, 0x2d, 0xc1, 0x02, 0x63, 0x19, 0xf2, 0xdd, 0xe9, 0xaf, 0xf7, 0x37, 0x10, 0x97, 0xea, 0x55, 0xa5, 0x7f, 0x73, 0xfd, 0xc2, 0x54, 0xde, 0x4b, 0x26, 0xcb, 0xed, 0x04, 0x39, 0xbf, 0xe5, 0xa1, 0x16, 0x47, 0x01, 0xc5, 0x04, 0x28, 0xba, 0x03, 0xd9, 0x01, 0x0a, 0xf6, 0x0d, 0xfd, 0xf5, 0x01, 0x25, 0xf2, 0xd2, 0xe9, 0x03, 0x01, 0x24, 0x04, 0x05, 0x31, 0xec, 0x17, 0x20, 0x34, 0x81, 0x52, 0x0b, 0xfd, 0x8b, 0x37, 0x09, 0x81, 0x18, 0x08, 0x1e, 0x35, 0x05, 0x20, 0x1b, 0xa0, 0x9c, 0x21, 0x30, 0xb9, 0x06, 0x81, 0xbf, 0xf4, 0xe8, 0xd2, 0xfb, 0xd8, 0xfb, 0xf8, 0xfb, 0xcb, 0xe7, 0xe9, 0x11, 0x01, 0xea, 0x01, 0x77, 0x30, 0x3e, 0x30, 0xd2, 0xc4, 0x44, 0x33, 0x96, 0x0f, 0x14, 0xb8, 0xba, 0xf6, 0xb4, 0xd4, 0x5a, 0x27, 0x7f, 0x37, 0xd2, 0x74, 0x8b, 0x9c, 0x50, 0x09, 0x0c, 0x35, 0x92, 0x12, 0x05, 0x1f, 0xcb, 0x63, 0xd6, 0x3f, 0x2b, 0x3a, 0x4e, 0x3b, 0x42, 0x38, 0x7f, 0xd9, 0xda, 0xde, 0xd7, 0x75, 0x1c, 0x0e, 0x5f, 0xd6, 0x45, 0x64, 0x38, 0x2a, 0xb2, 0x19, 0xda, 0xf4, 0xbf, 0x29, 0xfa, 0xe5, 0x16, 0xd9, 0xc4, 0x01, 0xdb, 0xdb, 0xa0, 0x92, 0xf3, 0xe2, 0x0b, 0x50, 0xeb, 0x42, 0x81, 0x11, 0x19, 0x13, 0x3f, 0x1d, 0x07, 0x44, 0xb7, 0x49, 0x4b, 0x5a, 0xe4, 0xfa, 0x08, 0x10, 0xaf, 0x42, 0x11, 0x5b, 0x58, 0x65, 0x4c, 0x34, 0x3a, 0x3a, 0x01, 0xca, 0x52, 0x53, 0xa0, 0x85, 0x85, 0xe9, 0x27, 0xf2, 0xd8, 0xf8, 0xed, 0x43, 0x38, 0x03, 0xc6, 0x06, 0x3b, 0x7f, 0x95, 0xc9, 0x37, 0xdf, 0xc4, 0xa7, 0x08, 0x36, 0x08, 0xf3, 0x3c, 0x2b, 0x03, 0xb8, 0x8c, 0x36, 0x08, 0x0d, 0xde, 0x81, 0xcf, 0xf3, 0x0f, 0x20, 0x2f, 0x1e, 0x28, 0xe0, 0xe7, 0xea, 0x27, 0xc9, 0x18, 0xef, 0x0b, 0x08, 0x6a, 0xaa, 0xae, 0xbd, 0xb7, 0xb0, 0xae, 0xde, 0xf4, 0xfa, 0xbb, 0x5a, 0xaa, 0x2e, 0x26, 0x39, 0xe0, 0x59, 0xbb, 0x81, 0x31, 0xc0, 0xd6, 0xdd, 0x13, 0x77, 0xd8, 0x6b, 0x78, 0x34, 0x89, 0x75, 0x12, 0x03, 0x03, 0xc3, 0xf9, 0xe4, 0x29, 0x2c, 0x2e, 0xe1, 0x18, 0xdc, 0x3a, 0x39, 0xe3, 0x23, 0x22, 0x14, 0x45, 0x01, 0x00, 0xf5, 0xe0, 0x09, 0x0f, 0x04, 0xdd, 0x02, 0xec, 0xda, 0x81, 0x1e, 0x05, 0xab, 0x1d, 0xfd, 0x0b, 0x2e, 0x0d, 0x0d, 0x05, 0xd4, 0xaf, 0x03, 0x1e, 0x9c, 0xdb, 0x81, 0xf0, 0x1b, 0x19, 0xcd, 0xcb, 0xe7, 0x06, 0x08, 0x0b, 0x02, 0x01, 0x03, 0xf6, 0xfe, 0xe7, 0x09, 0x3f, 0x12, 0xdf, 0xea, 0x03, 0x36, 0x46, 0x3f, 0xcf, 0xa7, 0xb8, 0x3e, 0x4a, 0x2b, 0x33, 0x4e, 0x21, 0xfa, 0x51, 0xf3, 0xf9, 0xfe, 0xa8, 0xe7, 0x18, 0x74, 0xbe, 0x54, 0x25, 0xcf, 0x81, 0x04, 0xfa, 0xfd, 0xff, 0xff, 0x04, 0x00, 0x00, 0x00, 0x40, 0x00, 0x00, 0x00, 0x78, 0x0a, 0x00, 0x00, 0x68, 0x04, 0x00, 0x00, 0x1c, 0x0c, 0x00, 0x00, 0x63, 0x04, 0x00, 0x00, 0xdf, 0x07, 0x00, 0x00, 0xf3, 0x0c, 0x00, 0x00, 0xac, 0xfe, 0xff, 0xff, 0x2d, 0x09, 0x00, 0x00, 0xcd, 0x03, 0x00, 0x00, 0x5a, 0x0d, 0x00, 0x00, 0x32, 0x01, 0x00, 0x00, 0xae, 0x00, 0x00, 0x00, 0x40, 0x10, 0x00, 0x00, 0xa4, 0x08, 0x00, 0x00, 0xfc, 0x02, 0x00, 0x00, 0x1d, 0x0e, 0x00, 0x00, 0x46, 0xfe, 0xff, 0xff, 0x04, 0x00, 0x00, 0x00, 0x30, 0x00, 0x00, 0x00, 0x45, 0xe4, 0x81, 0xfb, 0xd2, 0x3e, 0x26, 0xe7, 0xcd, 0x8c, 0xf2, 0x47, 0xc9, 0x3f, 0x0a, 0x11, 0x5a, 0xa4, 0x7f, 0xad, 0x0d, 0x48, 0xb0, 0xf4, 0xe1, 0xf5, 0xc7, 0xb8, 0x0e, 0x50, 0xb0, 0x1b, 0x07, 0x33, 0xa4, 0xd9, 0x1c, 0x81, 0xe1, 0x4e, 0x27, 0x1b, 0x0e, 0x3d, 0x86, 0xe3, 0xc5, 0xf2, 0x82, 0xfe, 0xff, 0xff, 0x04, 0x00, 0x00, 0x00, 0x0c, 0x00, 0x00, 0x00, 0x3c, 0xfe, 0xff, 0xff, 0x85, 0xfe, 0xff, 0xff, 0xa9, 0x01, 0x00, 0x00, 0x9a, 0xfe, 0xff, 0xff, 0x04, 0x00, 0x00, 0x00, 0x10, 0x00, 0x00, 0x00, 0xde, 0xfa, 0x1c, 0x26, 0xa7, 0x26, 0x5f, 0xfa, 0x81, 0x34, 0x1d, 0xe9, 0xdf, 0x65, 0x05, 0x62, 0xb6, 0xfe, 0xff, 0xff, 0x04, 0x00, 0x00, 0x00, 0x04, 0x00, 0x00, 0x00, 0x16, 0xe9, 0xff, 0xff, 0x70, 0xf0, 0xff, 0xff, 0x74, 0xf0, 0xff, 0xff, 0x0f, 0x00, 0x00, 0x00, 0x4d, 0x4c, 0x49, 0x52, 0x20, 0x43, 0x6f, 0x6e, 0x76, 0x65, 0x72, 0x74, 0x65, 0x64, 0x2e, 0x00, 0x01, 0x00, 0x00, 0x00, 0x14, 0x00, 0x00, 0x00, 0x00, 0x00, 0x0e, 0x00, 0x18, 0x00, 0x14, 0x00, 0x10, 0x00, 0x0c, 0x00, 0x08, 0x00, 0x04, 0x00, 0x0e, 0x00, 0x00, 0x00, 0x14, 0x00, 0x00, 0x00, 0x1c, 0x00, 0x00, 0x00, 0x0c, 0x02, 0x00, 0x00, 0x14, 0x02, 0x00, 0x00, 0x18, 0x02, 0x00, 0x00, 0x04, 0x00, 0x00, 0x00, 0x6d, 0x61, 0x69, 0x6e, 0x00, 0x00, 0x00, 0x00, 0x09, 0x00, 0x00, 0x00, 0xd4, 0x01, 0x00, 0x00, 0x84, 0x01, 0x00, 0x00, 0x38, 0x01, 0x00, 0x00, 0xf0, 0x00, 0x00, 0x00, 0xb4, 0x00, 0x00, 0x00, 0x90, 0x00, 0x00, 0x00, 0x4c, 0x00, 0x00, 0x00, 0x28, 0x00, 0x00, 0x00, 0x04, 0x00, 0x00, 0x00, 0x8a, 0xff, 0xff, 0xff, 0x0c, 0x00, 0x00, 0x00, 0x10, 0x00, 0x00, 0x00, 0x03, 0x00, 0x00, 0x00, 0x01, 0x00, 0x00, 0x00, 0x11, 0x00, 0x00, 0x00, 0x01, 0x00, 0x00, 0x00, 0x10, 0x00, 0x00, 0x00, 0xaa, 0xff, 0xff, 0xff, 0x0c, 0x00, 0x00, 0x00, 0x10, 0x00, 0x00, 0x00, 0x04, 0x00, 0x00, 0x00, 0x01, 0x00, 0x00, 0x00, 0x10, 0x00, 0x00, 0x00, 0x01, 0x00, 0x00, 0x00, 0x0f, 0x00, 0x00, 0x00, 0x32, 0xff, 0xff, 0xff, 0x14, 0x00, 0x00, 0x00, 0x00, 0x00, 0x00, 0x08, 0x10, 0x00, 0x00, 0x00, 0x14, 0x00, 0x00, 0x00, 0x01, 0x00, 0x00, 0x00, 0x48, 0xf1, 0xff, 0xff, 0x01, 0x00, 0x00, 0x00, 0x0f, 0x00, 0x00, 0x00, 0x03, 0x00, 0x00, 0x00, 0x0b, 0x00, 0x00, 0x00, 0x02, 0x00, 0x00, 0x00, 0x01, 0x00, 0x00, 0x00, 0x00, 0x00, 0x0a, 0x00, 0x10, 0x00, 0x0c, 0x00, 0x08, 0x00, 0x04, 0x00, 0x0a, 0x00, 0x00, 0x00, 0x0c, 0x00, 0x00, 0x00, 0x10, 0x00, 0x00, 0x00, 0x03, 0x00, 0x00, 0x00, 0x01, 0x00, 0x00, 0x00, 0x0e, 0x00, 0x00, 0x00, 0x01, 0x00, 0x00, 0x00, 0x0d, 0x00, 0x00, 0x00, 0x4a, 0xff, 0xff, 0xff, 0x1c, 0x00, 0x00, 0x00, 0x00, 0x00, 0x00, 0x09, 0x1c, 0x00, 0x00, 0x00, 0x20, 0x00, 0x00, 0x00, 0x02, 0x00, 0x00, 0x00, 0x00, 0x00, 0x06, 0x00, 0x08, 0x00, 0x04, 0x00, 0x06, 0x00, 0x00, 0x00, 0x00, 0x00, 0x80, 0x3f, 0x01, 0x00, 0x00, 0x00, 0x0d, 0x00, 0x00, 0x00, 0x01, 0x00, 0x00, 0x00, 0x0c, 0x00, 0x00, 0x00, 0xca, 0xff, 0xff, 0xff, 0x14, 0x00, 0x00, 0x00, 0x00, 0x00, 0x00, 0x08, 0x10, 0x00, 0x00, 0x00, 0x14, 0x00, 0x00, 0x00, 0x01, 0x00, 0x00, 0x00, 0xe0, 0xf1, 0xff, 0xff, 0x01, 0x00, 0x00, 0x00, 0x0c, 0x00, 0x00, 0x00, 0x03, 0x00, 0x00, 0x00, 0x0b, 0x00, 0x00, 0x00, 0x04, 0x00, 0x00, 0x00, 0x03, 0x00, 0x00, 0x00, 0x00, 0x00, 0x0e, 0x00, 0x18, 0x00, 0x14, 0x00, 0x10, 0x00, 0x0c, 0x00, 0x0b, 0x00, 0x04, 0x00, 0x0e, 0x00, 0x00, 0x00, 0x14, 0x00, 0x00, 0x00, 0x00, 0x00, 0x00, 0x08, 0x14, 0x00, 0x00, 0x00, 0x18, 0x00, 0x00, 0x00, 0x01, 0x00, 0x00, 0x00, 0xb6, 0xff, 0xff, 0xff, 0x00, 0x00, 0x00, 0x01, 0x01, 0x00, 0x00, 0x00, 0x0b, 0x00, 0x00, 0x00, 0x03, 0x00, 0x00, 0x00, 0x0a, 0x00, 0x00, 0x00, 0x06, 0x00, 0x00, 0x00, 0x05, 0x00, 0x00, 0x00, 0x00, 0x00, 0x0e, 0x00, 0x1a, 0x00, 0x14, 0x00, 0x10, 0x00, 0x0c, 0x00, 0x0b, 0x00, 0x04, 0x00, 0x0e, 0x00, 0x00, 0x00, 0x1c, 0x00, 0x00, 0x00, 0x00, 0x00, 0x00, 0x08, 0x1c, 0x00, 0x00, 0x00, 0x20, 0x00, 0x00, 0x00, 0x01, 0x00, 0x00, 0x00, 0x00, 0x00, 0x06, 0x00, 0x08, 0x00, 0x07, 0x00, 0x06, 0x00, 0x00, 0x00, 0x00, 0x00, 0x00, 0x01, 0x01, 0x00, 0x00, 0x00, 0x0a, 0x00, 0x00, 0x00, 0x03, 0x00, 0x00, 0x00, 0x09, 0x00, 0x00, 0x00, 0x08, 0x00, 0x00, 0x00, 0x07, 0x00, 0x00, 0x00, 0x00, 0x00, 0x0a, 0x00, 0x0c, 0x00, 0x00, 0x00, 0x08, 0x00, 0x04, 0x00, 0x0a, 0x00, 0x00, 0x00, 0x08, 0x00, 0x00, 0x00, 0x0c, 0x00, 0x00, 0x00, 0x01, 0x00, 0x00, 0x00, 0x09, 0x00, 0x00, 0x00, 0x01, 0x00, 0x00, 0x00, 0x00, 0x00, 0x00, 0x00, 0x02, 0x00, 0x00, 0x00, 0x11, 0x00, 0x00, 0x00, 0x0e, 0x00, 0x00, 0x00, 0x01, 0x00, 0x00, 0x00, 0x00, 0x00, 0x00, 0x00, 0x12, 0x00, 0x00, 0x00, 0x04, 0x0d, 0x00, 0x00, 0x80, 0x0c, 0x00, 0x00, 0x00, 0x0c, 0x00, 0x00, 0x84, 0x0b, 0x00, 0x00, 0x08, 0x0b, 0x00, 0x00, 0xf4, 0x09, 0x00, 0x00, 0xd8, 0x08, 0x00, 0x00, 0x04, 0x07, 0x00, 0x00, 0x28, 0x05, 0x00, 0x00, 0xb4, 0x04, 0x00, 0x00, 0xd8, 0x03, 0x00, 0x00, 0x14, 0x03, 0x00, 0x00, 0x68, 0x02, 0x00, 0x00, 0xe4, 0x01, 0x00, 0x00, 0x88, 0x01, 0x00, 0x00, 0xe4, 0x00, 0x00, 0x00, 0x60, 0x00, 0x00, 0x00, 0x04, 0x00, 0x00, 0x00, 0x5a, 0xf3, 0xff, 0xff, 0x00, 0x00, 0x00, 0x01, 0x14, 0x00, 0x00, 0x00, 0x1c, 0x00, 0x00, 0x00, 0x1c, 0x00, 0x00, 0x00, 0x12, 0x00, 0x00, 0x00, 0x34, 0x00, 0x00, 0x00, 0x02, 0x00, 0x00, 0x00, 0xff, 0xff, 0xff, 0xff, 0x01, 0x00, 0x00, 0x00, 0x44, 0xf3, 0xff, 0xff, 0x1b, 0x00, 0x00, 0x00, 0x53, 0x74, 0x61, 0x74, 0x65, 0x66, 0x75, 0x6c, 0x50, 0x61, 0x72, 0x74, 0x69, 0x74, 0x69, 0x6f, 0x6e, 0x65, 0x64, 0x43, 0x61, 0x6c, 0x6c, 0x5f, 0x31, 0x3a, 0x31, 0x00, 0x02, 0x00, 0x00, 0x00, 0x01, 0x00, 0x00, 0x00, 0x01, 0x00, 0x00, 0x00, 0xde, 0xfb, 0xff, 0xff, 0x00, 0x00, 0x00, 0x01, 0x18, 0x00, 0x00, 0x00, 0x20, 0x00, 0x00, 0x00, 0x40, 0x00, 0x00, 0x00, 0x11, 0x00, 0x00, 0x00, 0x00, 0x00, 0x00, 0x09, 0x58, 0x00, 0x00, 0x00, 0x02, 0x00, 0x00, 0x00, 0xff, 0xff, 0xff, 0xff, 0x01, 0x00, 0x00, 0x00, 0x2c, 0xf4, 0xff, 0xff, 0x08, 0x00, 0x00, 0x00, 0x14, 0x00, 0x00, 0x00, 0x01, 0x00, 0x00, 0x00, 0x80, 0xff, 0xff, 0xff, 0xff, 0xff, 0xff, 0xff, 0x00, 0x00, 0x00, 0x00, 0x01, 0x00, 0x00, 0x00, 0x00, 0x00, 0x80, 0x3b, 0x1c, 0x00, 0x00, 0x00, 0x53, 0x74, 0x61, 0x74, 0x65, 0x66, 0x75, 0x6c, 0x50, 0x61, 0x72, 0x74, 0x69, 0x74, 0x69, 0x6f, 0x6e, 0x65, 0x64, 0x43, 0x61, 0x6c, 0x6c, 0x5f, 0x31, 0x3a, 0x31, 0x31, 0x00, 0x00, 0x00, 0x00, 0x02, 0x00, 0x00, 0x00, 0x01, 0x00, 0x00, 0x00, 0x01, 0x00, 0x00, 0x00, 0x5e, 0xfc, 0xff, 0xff, 0x00, 0x00, 0x00, 0x01, 0x18, 0x00, 0x00, 0x00, 0x20, 0x00, 0x00, 0x00, 0x3c, 0x00, 0x00, 0x00, 0x10, 0x00, 0x00, 0x00, 0x00, 0x00, 0x00, 0x09, 0x78, 0x00, 0x00, 0x00, 0x02, 0x00, 0x00, 0x00, 0xff, 0xff, 0xff, 0xff, 0x01, 0x00, 0x00, 0x00, 0xac, 0xf4, 0xff, 0xff, 0x08, 0x00, 0x00, 0x00, 0x10, 0x00, 0x00, 0x00, 0x01, 0x00, 0x00, 0x00, 0x24, 0x00, 0x00, 0x00, 0x00, 0x00, 0x00, 0x00, 0x01, 0x00, 0x00, 0x00, 0x2a, 0x1c, 0xa5, 0x3c, 0x40, 0x00, 0x00, 0x00, 0x66, 0x75, 0x6e, 0x63, 0x74, 0x69, 0x6f, 0x6e, 0x61, 0x6c, 0x5f, 0x31, 0x5f, 0x31, 0x2f, 0x77, 0x73, 0x69, 0x5f, 0x73, 0x63, 0x6f, 0x72, 0x65, 0x5f, 0x31, 0x2f, 0x4d, 0x61, 0x74, 0x4d, 0x75, 0x6c, 0x3b, 0x66, 0x75, 0x6e, 0x63, 0x74, 0x69, 0x6f, 0x6e, 0x61, 0x6c, 0x5f, 0x31, 0x5f, 0x31, 0x2f, 0x77, 0x73, 0x69, 0x5f, 0x73, 0x63, 0x6f, 0x72, 0x65, 0x5f, 0x31, 0x2f, 0x41, 0x64, 0x64, 0x00, 0x00, 0x00, 0x00, 0x02, 0x00, 0x00, 0x00, 0x01, 0x00, 0x00, 0x00, 0x01, 0x00, 0x00, 0x00, 0xd2, 0xf4, 0xff, 0xff, 0x00, 0x00, 0x00, 0x01, 0x14, 0x00, 0x00, 0x00, 0x1c, 0x00, 0x00, 0x00, 0x1c, 0x00, 0x00, 0x00, 0x0f, 0x00, 0x00, 0x00, 0x34, 0x00, 0x00, 0x00, 0x02, 0x00, 0x00, 0x00, 0xff, 0xff, 0xff, 0xff, 0x03, 0x00, 0x00, 0x00, 0xbc, 0xf4, 0xff, 0xff, 0x1b, 0x00, 0x00, 0x00, 0x53, 0x74, 0x61, 0x74, 0x65, 0x66, 0x75, 0x6c, 0x50, 0x61, 0x72, 0x74, 0x69, 0x74, 0x69, 0x6f, 0x6e, 0x65, 0x64, 0x43, 0x61, 0x6c, 0x6c, 0x5f, 0x31, 0x3a, 0x30, 0x00, 0x02, 0x00, 0x00, 0x00, 0x01, 0x00, 0x00, 0x00, 0x03, 0x00, 0x00, 0x00, 0x56, 0xfd, 0xff, 0xff, 0x00, 0x00, 0x00, 0x01, 0x18, 0x00, 0x00, 0x00, 0x20, 0x00, 0x00, 0x00, 0x40, 0x00, 0x00, 0x00, 0x0e, 0x00, 0x00, 0x00, 0x00, 0x00, 0x00, 0x09, 0x58, 0x00, 0x00, 0x00, 0x02, 0x00, 0x00, 0x00, 0xff, 0xff, 0xff, 0xff, 0x03, 0x00, 0x00, 0x00, 0xa4, 0xf5, 0xff, 0xff, 0x08, 0x00, 0x00, 0x00, 0x14, 0x00, 0x00, 0x00, 0x01, 0x00, 0x00, 0x00, 0x80, 0xff, 0xff, 0xff, 0xff, 0xff, 0xff, 0xff, 0x00, 0x00, 0x00, 0x00, 0x01, 0x00, 0x00, 0x00, 0x00, 0x00, 0x80, 0x3b, 0x1c, 0x00, 0x00, 0x00, 0x53, 0x74, 0x61, 0x74, 0x65, 0x66, 0x75, 0x6c, 0x50, 0x61, 0x72, 0x74, 0x69, 0x74, 0x69, 0x6f, 0x6e, 0x65, 0x64, 0x43, 0x61, 0x6c, 0x6c, 0x5f, 0x31, 0x3a, 0x30, 0x31, 0x00, 0x00, 0x00, 0x00, 0x02, 0x00, 0x00, 0x00, 0x01, 0x00, 0x00, 0x00, 0x03, 0x00, 0x00, 0x00, 0xd6, 0xfd, 0xff, 0xff, 0x00, 0x00, 0x00, 0x01, 0x18, 0x00, 0x00, 0x00, 0x20, 0x00, 0x00, 0x00, 0x40, 0x00, 0x00, 0x00, 0x0d, 0x00, 0x00, 0x00, 0x00, 0x00, 0x00, 0x09, 0x80, 0x00, 0x00, 0x00, 0x02, 0x00, 0x00, 0x00, 0xff, 0xff, 0xff, 0xff, 0x03, 0x00, 0x00, 0x00, 0x24, 0xf6, 0xff, 0xff, 0x08, 0x00, 0x00, 0x00, 0x14, 0x00, 0x00, 0x00, 0x01, 0x00, 0x00, 0x00, 0x0c, 0x00, 0x00, 0x00, 0x00, 0x00, 0x00, 0x00, 0x00, 0x00, 0x00, 0x00, 0x01, 0x00, 0x00, 0x00, 0x3f, 0xe0, 0xee, 0x3c, 0x46, 0x00, 0x00, 0x00, 0x66, 0x75, 0x6e, 0x63, 0x74, 0x69, 0x6f, 0x6e, 0x61, 0x6c, 0x5f, 0x31, 0x5f, 0x31, 0x2f, 0x72, 0x69, 0x73, 0x6b, 0x5f, 0x6c, 0x65, 0x76, 0x65, 0x6c, 0x5f, 0x31, 0x2f, 0x4d, 0x61, 0x74, 0x4d, 0x75, 0x6c, 0x3b, 0x66, 0x75, 0x6e, 0x63, 0x74, 0x69, 0x6f, 0x6e, 0x61, 0x6c, 0x5f, 0x31, 0x5f, 0x31, 0x2f, 0x72, 0x69, 0x73, 0x6b, 0x5f, 0x6c, 0x65, 0x76, 0x65, 0x6c, 0x5f, 0x31, 0x2f, 0x42, 0x69, 0x61, 0x73, 0x41, 0x64, 0x64, 0x00, 0x00, 0x02, 0x00, 0x00, 0x00, 0x01, 0x00, 0x00, 0x00, 0x03, 0x00, 0x00, 0x00, 0x7e, 0xfe, 0xff, 0xff, 0x00, 0x00, 0x00, 0x01, 0x18, 0x00, 0x00, 0x00, 0x20, 0x00, 0x00, 0x00, 0x40, 0x00, 0x00, 0x00, 0x0c, 0x00, 0x00, 0x00, 0x00, 0x00, 0x00, 0x09, 0x98, 0x00, 0x00, 0x00, 0x02, 0x00, 0x00, 0x00, 0xff, 0xff, 0xff, 0xff, 0x10, 0x00, 0x00, 0x00, 0xcc, 0xf6, 0xff, 0xff, 0x08, 0x00, 0x00, 0x00, 0x14, 0x00, 0x00, 0x00, 0x01, 0x00, 0x00, 0x00, 0x80, 0xff, 0xff, 0xff, 0xff, 0xff, 0xff, 0xff, 0x00, 0x00, 0x00, 0x00, 0x01, 0x00, 0x00, 0x00, 0x8a, 0x5d, 0x9c, 0x3c, 0x5e, 0x00, 0x00, 0x00, 0x66, 0x75, 0x6e, 0x63, 0x74, 0x69, 0x6f, 0x6e, 0x61, 0x6c, 0x5f, 0x31, 0x5f, 0x31, 0x2f, 0x64, 0x65, 0x6e, 0x73, 0x65, 0x5f, 0x34, 0x5f, 0x31, 0x2f, 0x4d, 0x61, 0x74, 0x4d, 0x75, 0x6c, 0x3b, 0x66, 0x75, 0x6e, 0x63, 0x74, 0x69, 0x6f, 0x6e, 0x61, 0x6c, 0x5f, 0x31, 0x5f, 0x31, 0x2f, 0x64, 0x65, 0x6e, 0x73, 0x65, 0x5f, 0x34, 0x5f, 0x31, 0x2f, 0x52, 0x65, 0x6c, 0x75, 0x3b, 0x66, 0x75, 0x6e, 0x63, 0x74, 0x69, 0x6f, 0x6e, 0x61, 0x6c, 0x5f, 0x31, 0x5f, 0x31, 0x2f, 0x64, 0x65, 0x6e, 0x73, 0x65, 0x5f, 0x34, 0x5f, 0x31, 0x2f, 0x42, 0x69, 0x61, 0x73, 0x41, 0x64, 0x64, 0x00, 0x00, 0x02, 0x00, 0x00, 0x00, 0x01, 0x00, 0x00, 0x00, 0x10, 0x00, 0x00, 0x00, 0x3e, 0xff, 0xff, 0xff, 0x00, 0x00, 0x00, 0x01, 0x18, 0x00, 0x00, 0x00, 0x20, 0x00, 0x00, 0x00, 0x40, 0x00, 0x00, 0x00, 0x0b, 0x00, 0x00, 0x00, 0x00, 0x00, 0x00, 0x09, 0x98, 0x00, 0x00, 0x00, 0x02, 0x00, 0x00, 0x00, 0xff, 0xff, 0xff, 0xff, 0x20, 0x00, 0x00, 0x00, 0x8c, 0xf7, 0xff, 0xff, 0x08, 0x00, 0x00, 0x00, 0x14, 0x00, 0x00, 0x00, 0x01, 0x00, 0x00, 0x00, 0x80, 0xff, 0xff, 0xff, 0xff, 0xff, 0xff, 0xff, 0x00, 0x00, 0x00, 0x00, 0x01, 0x00, 0x00, 0x00, 0xb9, 0xd4, 0x95, 0x3c, 0x5e, 0x00, 0x00, 0x00, 0x66, 0x75, 0x6e, 0x63, 0x74, 0x69, 0x6f, 0x6e, 0x61, 0x6c, 0x5f, 0x31, 0x5f, 0x31, 0x2f, 0x64, 0x65, 0x6e, 0x73, 0x65, 0x5f, 0x33, 0x5f, 0x31, 0x2f, 0x4d, 0x61, 0x74, 0x4d, 0x75, 0x6c, 0x3b, 0x66, 0x75, 0x6e, 0x63, 0x74, 0x69, 0x6f, 0x6e, 0x61, 0x6c, 0x5f, 0x31, 0x5f, 0x31, 0x2f, 0x64, 0x65, 0x6e, 0x73, 0x65, 0x5f, 0x33, 0x5f, 0x31, 0x2f, 0x52, 0x65, 0x6c, 0x75, 0x3b, 0x66, 0x75, 0x6e, 0x63, 0x74, 0x69, 0x6f, 0x6e, 0x61, 0x6c, 0x5f, 0x31, 0x5f, 0x31, 0x2f, 0x64, 0x65, 0x6e, 0x73, 0x65, 0x5f, 0x33, 0x5f, 0x31, 0x2f, 0x42, 0x69, 0x61, 0x73, 0x41, 0x64, 0x64, 0x00, 0x00, 0x02, 0x00, 0x00, 0x00, 0x01, 0x00, 0x00, 0x00, 0x20, 0x00, 0x00, 0x00, 0x00, 0x00, 0x16, 0x00, 0x20, 0x00, 0x1c, 0x00, 0x1b, 0x00, 0x14, 0x00, 0x10, 0x00, 0x0c, 0x00, 0x00, 0x00, 0x00, 0x00, 0x08, 0x00, 0x07, 0x00, 0x16, 0x00, 0x00, 0x00, 0x00, 0x00, 0x00, 0x01, 0x18, 0x00, 0x00, 0x00, 0x20, 0x00, 0x00, 0x00, 0x40, 0x00, 0x00, 0x00, 0x0a, 0x00, 0x00, 0x00, 0x00, 0x00, 0x00, 0x09, 0x48, 0x00, 0x00, 0x00, 0x02, 0x00, 0x00, 0x00, 0xff, 0xff, 0xff, 0xff, 0x0b, 0x00, 0x00, 0x00, 0x64, 0xf8, 0xff, 0xff, 0x08, 0x00, 0x00, 0x00, 0x14, 0x00, 0x00, 0x00, 0x01, 0x00, 0x00, 0x00, 0x04, 0x00, 0x00, 0x00, 0x00, 0x00, 0x00, 0x00, 0x00, 0x00, 0x00, 0x00, 0x01, 0x00, 0x00, 0x00, 0x52, 0x5a, 0xb6, 0x3c, 0x0c, 0x00, 0x00, 0x00, 0x74, 0x66, 0x6c, 0x2e, 0x71, 0x75, 0x61, 0x6e, 0x74, 0x69, 0x7a, 0x65, 0x00, 0x00, 0x00, 0x00, 0x02, 0x00, 0x00, 0x00, 0x01, 0x00, 0x00, 0x00, 0x0b, 0x00, 0x00, 0x00, 0xda, 0xf8, 0xff, 0xff, 0x00, 0x00, 0x00, 0x01, 0x14, 0x00, 0x00, 0x00, 0xa8, 0x01, 0x00, 0x00, 0x09, 0x00, 0x00, 0x00, 0x00, 0x00, 0x00, 0x09, 0xb4, 0x01, 0x00, 0x00, 0xc4, 0xf8, 0xff, 0xff, 0x08, 0x00, 0x00, 0x00, 0x0c, 0x01, 0x00, 0x00, 0x20, 0x00, 0x00, 0x00, 0x00, 0x00, 0x00, 0x00, 0x00, 0x00, 0x00, 0x00, 0x00, 0x00, 0x00, 0x00, 0x00, 0x00, 0x00, 0x00, 0x00, 0x00, 0x00, 0x00, 0x00, 0x00, 0x00, 0x00, 0x00, 0x00, 0x00, 0x00, 0x00, 0x00, 0x00, 0x00, 0x00, 0x00, 0x00, 0x00, 0x00, 0x00, 0x00, 0x00, 0x00, 0x00, 0x00, 0x00, 0x00, 0x00, 0x00, 0x00, 0x00, 0x00, 0x00, 0x00, 0x00, 0x00, 0x00, 0x00, 0x00, 0x00, 0x00, 0x00, 0x00, 0x00, 0x00, 0x00, 0x00, 0x00, 0x00, 0x00, 0x00, 0x00, 0x00, 0x00, 0x00, 0x00, 0x00, 0x00, 0x00, 0x00, 0x00, 0x00, 0x00, 0x00, 0x00, 0x00, 0x00, 0x00, 0x00, 0x00, 0x00, 0x00, 0x00, 0x00, 0x00, 0x00, 0x00, 0x00, 0x00, 0x00, 0x00, 0x00, 0x00, 0x00, 0x00, 0x00, 0x00, 0x00, 0x00, 0x00, 0x00, 0x00, 0x00, 0x00, 0x00, 0x00, 0x00, 0x00, 0x00, 0x00, 0x00, 0x00, 0x00, 0x00, 0x00, 0x00, 0x00, 0x00, 0x00, 0x00, 0x00, 0x00, 0x00, 0x00, 0x00, 0x00, 0x00, 0x00, 0x00, 0x00, 0x00, 0x00, 0x00, 0x00, 0x00, 0x00, 0x00, 0x00, 0x00, 0x00, 0x00, 0x00, 0x00, 0x00, 0x00, 0x00, 0x00, 0x00, 0x00, 0x00, 0x00, 0x00, 0x00, 0x00, 0x00, 0x00, 0x00, 0x00, 0x00, 0x00, 0x00, 0x00, 0x00, 0x00, 0x00, 0x00, 0x00, 0x00, 0x00, 0x00, 0x00, 0x00, 0x00, 0x00, 0x00, 0x00, 0x00, 0x00, 0x00, 0x00, 0x00, 0x00, 0x00, 0x00, 0x00, 0x00, 0x00, 0x00, 0x00, 0x00, 0x00, 0x00, 0x00, 0x00, 0x00, 0x00, 0x00, 0x00, 0x00, 0x00, 0x00, 0x00, 0x00, 0x00, 0x00, 0x00, 0x00, 0x00, 0x00, 0x00, 0x00, 0x00, 0x00, 0x00, 0x00, 0x00, 0x00, 0x00, 0x00, 0x00, 0x00, 0x00, 0x00, 0x00, 0x00, 0x00, 0x00, 0x00, 0x00, 0x00, 0x00, 0x00, 0x00, 0x00, 0x00, 0x00, 0x00, 0x00, 0x00, 0x00, 0x00, 0x00, 0x00, 0x00, 0x00, 0x00, 0x00, 0x00, 0x00, 0x00, 0x00, 0x00, 0x20, 0x00, 0x00, 0x00, 0xff, 0xc8, 0x29, 0x3b, 0xf6, 0xfd, 0xac, 0x3b, 0x11, 0xe5, 0x3a, 0x3b, 0x84, 0x1f, 0x93, 0x3b, 0xfb, 0xd0, 0x87, 0x3b, 0xdb, 0x61, 0x51, 0x3b, 0x49, 0xd1, 0x8e, 0x3b, 0xe9, 0xb4, 0xb0, 0x3b, 0x9f, 0x5b, 0x88, 0x3b, 0x12, 0xfc, 0x73, 0x3b, 0x6d, 0x39, 0xa0, 0x3b, 0x36, 0xeb, 0x69, 0x3b, 0x09, 0xf3, 0x7d, 0x3b, 0xfd, 0xef, 0xae, 0x3b, 0x00, 0xe0, 0x8a, 0x3b, 0x1f, 0x9c, 0xd5, 0x3b, 0x11, 0x58, 0xa9, 0x3b, 0x5a, 0x15, 0x90, 0x3b, 0xdd, 0xaa, 0x2a, 0x3b, 0x28, 0xcf, 0x4a, 0x3b, 0x13, 0x92, 0x76, 0x3b, 0xbf, 0x20, 0x6b, 0x3b, 0xf8, 0xb2, 0x6d, 0x3b, 0x63, 0xf4, 0x84, 0x3b, 0x0a, 0x60, 0x42, 0x3b, 0xbe, 0x23, 0x55, 0x3b, 0x08, 0xc2, 0xb1, 0x3b, 0x9e, 0x2c, 0x5d, 0x3b, 0x09, 0xe1, 0x95, 0x3b, 0x7e, 0x93, 0x4c, 0x3b, 0xb5, 0x3b, 0x98, 0x3b, 0x5a, 0xca, 0x0f, 0x3b, 0x12, 0x00, 0x00, 0x00, 0x74, 0x66, 0x6c, 0x2e, 0x70, 0x73, 0x65, 0x75, 0x64, 0x6f, 0x5f, 0x71, 0x63, 0x6f, 0x6e, 0x73, 0x74, 0x37, 0x00, 0x00, 0x02, 0x00, 0x00, 0x00, 0x20, 0x00, 0x00, 0x00, 0x0b, 0x00, 0x00, 0x00, 0xb2, 0xfa, 0xff, 0xff, 0x00, 0x00, 0x00, 0x01, 0x14, 0x00, 0x00, 0x00, 0xa4, 0x01, 0x00, 0x00, 0x08, 0x00, 0x00, 0x00, 0x00, 0x00, 0x00, 0x02, 0xb0, 0x01, 0x00, 0x00, 0x9c, 0xfa, 0xff, 0xff, 0x08, 0x00, 0x00, 0x00, 0x08, 0x01, 0x00, 0x00, 0x20, 0x00, 0x00, 0x00, 0x00, 0x00, 0x00, 0x00, 0x00, 0x00, 0x00, 0x00, 0x00, 0x00, 0x00, 0x00, 0x00, 0x00, 0x00, 0x00, 0x00, 0x00, 0x00, 0x00, 0x00, 0x00, 0x00, 0x00, 0x00, 0x00, 0x00, 0x00, 0x00, 0x00, 0x00, 0x00, 0x00, 0x00, 0x00, 0x00, 0x00, 0x00, 0x00, 0x00, 0x00, 0x00, 0x00, 0x00, 0x00, 0x00, 0x00, 0x00, 0x00, 0x00, 0x00, 0x00, 0x00, 0x00, 0x00, 0x00, 0x00, 0x00, 0x00, 0x00, 0x00, 0x00, 0x00, 0x00, 0x00, 0x00, 0x00, 0x00, 0x00, 0x00, 0x00, 0x00, 0x00, 0x00, 0x00, 0x00, 0x00, 0x00, 0x00, 0x00, 0x00, 0x00, 0x00, 0x00, 0x00, 0x00, 0x00, 0x00, 0x00, 0x00, 0x00, 0x00, 0x00, 0x00, 0x00, 0x00, 0x00, 0x00, 0x00, 0x00, 0x00, 0x00, 0x00, 0x00, 0x00, 0x00, 0x00, 0x00, 0x00, 0x00, 0x00, 0x00, 0x00, 0x00, 0x00, 0x00, 0x00, 0x00, 0x00, 0x00, 0x00, 0x00, 0x00, 0x00, 0x00, 0x00, 0x00, 0x00, 0x00, 0x00, 0x00, 0x00, 0x00, 0x00, 0x00, 0x00, 0x00, 0x00, 0x00, 0x00, 0x00, 0x00, 0x00, 0x00, 0x00, 0x00, 0x00, 0x00, 0x00, 0x00, 0x00, 0x00, 0x00, 0x00, 0x00, 0x00, 0x00, 0x00, 0x00, 0x00, 0x00, 0x00, 0x00, 0x00, 0x00, 0x00, 0x00, 0x00, 0x00, 0x00, 0x00, 0x00, 0x00, 0x00, 0x00, 0x00, 0x00, 0x00, 0x00, 0x00, 0x00, 0x00, 0x00, 0x00, 0x00, 0x00, 0x00, 0x00, 0x00, 0x00, 0x00, 0x00, 0x00, 0x00, 0x00, 0x00, 0x00, 0x00, 0x00, 0x00, 0x00, 0x00, 0x00, 0x00, 0x00, 0x00, 0x00, 0x00, 0x00, 0x00, 0x00, 0x00, 0x00, 0x00, 0x00, 0x00, 0x00, 0x00, 0x00, 0x00, 0x00, 0x00, 0x00, 0x00, 0x00, 0x00, 0x00, 0x00, 0x00, 0x00, 0x00, 0x00, 0x00, 0x00, 0x00, 0x00, 0x00, 0x00, 0x00, 0x00, 0x00, 0x00, 0x00, 0x00, 0x00, 0x00, 0x00, 0x00, 0x00, 0x00, 0x00, 0x00, 0x00, 0x00, 0x00, 0x00, 0x20, 0x00, 0x00, 0x00, 0x99, 0xe1, 0x71, 0x38, 0x2b, 0x73, 0xf6, 0x38, 0xca, 0x20, 0x85, 0x38, 0xa0, 0x98, 0xd1, 0x38, 0xfb, 0x7c, 0xc1, 0x38, 0x71, 0x25, 0x95, 0x38, 0x5a, 0x76, 0xcb, 0x38, 0xec, 0xbd, 0xfb, 0x38, 0x7e, 0x42, 0xc2, 0x38, 0x4a, 0xcb, 0xad, 0x38, 0xb6, 0x42, 0xe4, 0x38, 0xc0, 0x9f, 0xa6, 0x38, 0x61, 0xe4, 0xb4, 0x38, 0xad, 0x38, 0xf9, 0x38, 0x7e, 0xd8, 0xc5, 0x38, 0x5b, 0x28, 0x18, 0x39, 0xb7, 0x40, 0xf1, 0x38, 0x07, 0x44, 0xcd, 0x38, 0x60, 0x23, 0x73, 0x38, 0xd4, 0x76, 0x90, 0x38, 0xd8, 0xa2, 0xaf, 0x38, 0x3d, 0x7c, 0xa7, 0x38, 0x19, 0x51, 0xa9, 0x38, 0x4e, 0x69, 0xbd, 0x38, 0xdb, 0x74, 0x8a, 0x38, 0x9c, 0xd2, 0x97, 0x38, 0x52, 0x3d, 0xfd, 0x38, 0xc1, 0x8b, 0x9d, 0x38, 0xbb, 0x85, 0xd5, 0x38, 0x09, 0xb9, 0x91, 0x38, 0x51, 0xe0, 0xd8, 0x38, 0x2e, 0xd9, 0x4c, 0x38, 0x12, 0x00, 0x00, 0x00, 0x74, 0x66, 0x6c, 0x2e, 0x70, 0x73, 0x65, 0x75, 0x64, 0x6f, 0x5f, 0x71, 0x63, 0x6f, 0x6e, 0x73, 0x74, 0x36, 0x00, 0x00, 0x01, 0x00, 0x00, 0x00, 0x20, 0x00, 0x00, 0x00, 0x82, 0xfc, 0xff, 0xff, 0x00, 0x00, 0x00, 0x01, 0x14, 0x00, 0x00, 0x00, 0xe8, 0x00, 0x00, 0x00, 0x07, 0x00, 0x00, 0x00, 0x00, 0x00, 0x00, 0x09, 0xf4, 0x00, 0x00, 0x00, 0x6c, 0xfc, 0xff, 0xff, 0x08, 0x00, 0x00, 0x00, 0x8c, 0x00, 0x00, 0x00, 0x10, 0x00, 0x00, 0x00, 0x00, 0x00, 0x00, 0x00, 0x00, 0x00, 0x00, 0x00, 0x00, 0x00, 0x00, 0x00, 0x00, 0x00, 0x00, 0x00, 0x00, 0x00, 0x00, 0x00, 0x00, 0x00, 0x00, 0x00, 0x00, 0x00, 0x00, 0x00, 0x00, 0x00, 0x00, 0x00, 0x00, 0x00, 0x00, 0x00, 0x00, 0x00, 0x00, 0x00, 0x00, 0x00, 0x00, 0x00, 0x00, 0x00, 0x00, 0x00, 0x00, 0x00, 0x00, 0x00, 0x00, 0x00, 0x00, 0x00, 0x00, 0x00, 0x00, 0x00, 0x00, 0x00, 0x00, 0x00, 0x00, 0x00, 0x00, 0x00, 0x00, 0x00, 0x00, 0x00, 0x00, 0x00, 0x00, 0x00, 0x00, 0x00, 0x00, 0x00, 0x00, 0x00, 0x00, 0x00, 0x00, 0x00, 0x00, 0x00, 0x00, 0x00, 0x00, 0x00, 0x00, 0x00, 0x00, 0x00, 0x00, 0x00, 0x00, 0x00, 0x00, 0x00, 0x00, 0x00, 0x00, 0x00, 0x00, 0x00, 0x00, 0x00, 0x00, 0x00, 0x00, 0x00, 0x00, 0x00, 0x00, 0x00, 0x00, 0x00, 0x00, 0x00, 0x00, 0x00, 0x00, 0x00, 0x00, 0x00, 0x00, 0x00, 0x00, 0x00, 0x10, 0x00, 0x00, 0x00, 0x42, 0xab, 0xe8, 0x3b, 0xeb, 0xf2, 0x3a, 0x3c, 0x44, 0x64, 0xc0, 0x3b, 0xf2, 0xb9, 0x8c, 0x3b, 0xfe, 0x48, 0x86, 0x3b, 0xcc, 0xd0, 0xcb, 0x3b, 0xd6, 0xb8, 0x11, 0x3c, 0x76, 0x5c, 0x76, 0x3b, 0x83, 0x39, 0x70, 0x3b, 0x3f, 0x6a, 0xa8, 0x3b, 0x83, 0xa7, 0x43, 0x3b, 0xa3, 0x53, 0xfa, 0x3b, 0xb8, 0xcb, 0x76, 0x3b, 0x93, 0x91, 0xce, 0x3b, 0xfe, 0x42, 0x57, 0x3c, 0xce, 0x92, 0x7b, 0x3b, 0x12, 0x00, 0x00, 0x00, 0x74, 0x66, 0x6c, 0x2e, 0x70, 0x73, 0x65, 0x75, 0x64, 0x6f, 0x5f, 0x71, 0x63, 0x6f, 0x6e, 0x73, 0x74, 0x35, 0x00, 0x00, 0x02, 0x00, 0x00, 0x00, 0x10, 0x00, 0x00, 0x00, 0x20, 0x00, 0x00, 0x00, 0x9a, 0xfd, 0xff, 0xff, 0x00, 0x00, 0x00, 0x01, 0x14, 0x00, 0x00, 0x00, 0xe4, 0x00, 0x00, 0x00, 0x06, 0x00, 0x00, 0x00, 0x00, 0x00, 0x00, 0x02, 0xf0, 0x00, 0x00, 0x00, 0x84, 0xfd, 0xff, 0xff, 0x08, 0x00, 0x00, 0x00, 0x88, 0x00, 0x00, 0x00, 0x10, 0x00, 0x00, 0x00, 0x00, 0x00, 0x00, 0x00, 0x00, 0x00, 0x00, 0x00, 0x00, 0x00, 0x00, 0x00, 0x00, 0x00, 0x00, 0x00, 0x00, 0x00, 0x00, 0x00, 0x00, 0x00, 0x00, 0x00, 0x00, 0x00, 0x00, 0x00, 0x00, 0x00, 0x00, 0x00, 0x00, 0x00, 0x00, 0x00, 0x00, 0x00, 0x00, 0x00, 0x00, 0x00, 0x00, 0x00, 0x00, 0x00, 0x00, 0x00, 0x00, 0x00, 0x00, 0x00, 0x00, 0x00, 0x00, 0x00, 0x00, 0x00, 0x00, 0x00, 0x00, 0x00, 0x00, 0x00, 0x00, 0x00, 0x00, 0x00, 0x00, 0x00, 0x00, 0x00, 0x00, 0x00, 0x00, 0x00, 0x00, 0x00, 0x00, 0x00, 0x00, 0x00, 0x00, 0x00, 0x00, 0x00, 0x00, 0x00, 0x00, 0x00, 0x00, 0x00, 0x00, 0x00, 0x00, 0x00, 0x00, 0x00, 0x00, 0x00, 0x00, 0x00, 0x00, 0x00, 0x00, 0x00, 0x00, 0x00, 0x00, 0x00, 0x00, 0x00, 0x00, 0x00, 0x00, 0x00, 0x00, 0x00, 0x00, 0x00, 0x00, 0x00, 0x00, 0x00, 0x00, 0x00, 0x00, 0x00, 0x10, 0x00, 0x00, 0x00, 0x03, 0x2d, 0x08, 0x39, 0x76, 0xd5, 0x5a, 0x39, 0x73, 0x34, 0xe1, 0x38, 0x53, 0xba, 0xa4, 0x38, 0x23, 0x30, 0x9d, 0x38, 0xc6, 0x93, 0xee, 0x38, 0x56, 0x93, 0x2a, 0x39, 0x87, 0x30, 0x90, 0x38, 0x16, 0x99, 0x8c, 0x38, 0x91, 0x23, 0xc5, 0x38, 0x27, 0x06, 0x65, 0x38, 0xb0, 0x82, 0x12, 0x39, 0xa5, 0x71, 0x90, 0x38, 0xc1, 0xcc, 0xf1, 0x38, 0xba, 0xf9, 0x7b, 0x39, 0x7d, 0x3d, 0x93, 0x38, 0x12, 0x00, 0x00, 0x00, 0x74, 0x66, 0x6c, 0x2e, 0x70, 0x73, 0x65, 0x75, 0x64, 0x6f, 0x5f, 0x71, 0x63, 0x6f, 0x6e, 0x73, 0x74, 0x34, 0x00, 0x00, 0x01, 0x00, 0x00, 0x00, 0x10, 0x00, 0x00, 0x00, 0xaa, 0xfe, 0xff, 0xff, 0x00, 0x00, 0x00, 0x01, 0x14, 0x00, 0x00, 0x00, 0x48, 0x00, 0x00, 0x00, 0x05, 0x00, 0x00, 0x00, 0x00, 0x00, 0x00, 0x09, 0x54, 0x00, 0x00, 0x00, 0x94, 0xfe, 0xff, 0xff, 0x08, 0x00, 0x00, 0x00, 0x20, 0x00, 0x00, 0x00, 0x03, 0x00, 0x00, 0x00, 0x00, 0x00, 0x00, 0x00, 0x00, 0x00, 0x00, 0x00, 0x00, 0x00, 0x00, 0x00, 0x00, 0x00, 0x00, 0x00, 0x00, 0x00, 0x00, 0x00, 0x00, 0x00, 0x00, 0x00, 0x03, 0x00, 0x00, 0x00, 0x60, 0x70, 0x10, 0x3c, 0x51, 0x35, 0x03, 0x3c, 0x3f, 0x92, 0xf1, 0x3b, 0x12, 0x00, 0x00, 0x00, 0x74, 0x66, 0x6c, 0x2e, 0x70, 0x73, 0x65, 0x75, 0x64, 0x6f, 0x5f, 0x71, 0x63, 0x6f, 0x6e, 0x73, 0x74, 0x33, 0x00, 0x00, 0x02, 0x00, 0x00, 0x00, 0x03, 0x00, 0x00, 0x00, 0x10, 0x00, 0x00, 0x00, 0x22, 0xff, 0xff, 0xff, 0x00, 0x00, 0x00, 0x01, 0x14, 0x00, 0x00, 0x00, 0x4c, 0x00, 0x00, 0x00, 0x04, 0x00, 0x00, 0x00, 0x00, 0x00, 0x00, 0x02, 0x58, 0x00, 0x00, 0x00, 0x0c, 0xff, 0xff, 0xff, 0x08, 0x00, 0x00, 0x00, 0x24, 0x00, 0x00, 0x00, 0x03, 0x00, 0x00, 0x00, 0x00, 0x00, 0x00, 0x00, 0x00, 0x00, 0x00, 0x00, 0x00, 0x00, 0x00, 0x00, 0x00, 0x00, 0x00, 0x00, 0x00, 0x00, 0x00, 0x00, 0x00, 0x00, 0x00, 0x00, 0x00, 0x00, 0x00, 0x00, 0x03, 0x00, 0x00, 0x00, 0x82, 0x72, 0x30, 0x39, 0xdd, 0x48, 0x20, 0x39, 0x63, 0x8d, 0x13, 0x39, 0x12, 0x00, 0x00, 0x00, 0x74, 0x66, 0x6c, 0x2e, 0x70, 0x73, 0x65, 0x75, 0x64, 0x6f, 0x5f, 0x71, 0x63, 0x6f, 0x6e, 0x73, 0x74, 0x32, 0x00, 0x00, 0x01, 0x00, 0x00, 0x00, 0x03, 0x00, 0x00, 0x00, 0x9a, 0xff, 0xff, 0xff, 0x00, 0x00, 0x00, 0x01, 0x14, 0x00, 0x00, 0x00, 0x34, 0x00, 0x00, 0x00, 0x03, 0x00, 0x00, 0x00, 0x00, 0x00, 0x00, 0x09, 0x40, 0x00, 0x00, 0x00, 0x84, 0xff, 0xff, 0xff, 0x08, 0x00, 0x00, 0x00, 0x14, 0x00, 0x00, 0x00, 0x01, 0x00, 0x00, 0x00, 0x00, 0x00, 0x00, 0x00, 0x00, 0x00, 0x00, 0x00, 0x00, 0x00, 0x00, 0x00, 0x01, 0x00, 0x00, 0x00, 0x2b, 0x04, 0xa1, 0x3b, 0x12, 0x00, 0x00, 0x00, 0x74, 0x66, 0x6c, 0x2e, 0x70, 0x73, 0x65, 0x75, 0x64, 0x6f, 0x5f, 0x71, 0x63, 0x6f, 0x6e, 0x73, 0x74, 0x31, 0x00, 0x00, 0x02, 0x00, 0x00, 0x00, 0x01, 0x00, 0x00, 0x00, 0x10, 0x00, 0x00, 0x00, 0x00, 0x00, 0x16, 0x00, 0x1c, 0x00, 0x18, 0x00, 0x17, 0x00, 0x10, 0x00, 0x0c, 0x00, 0x08, 0x00, 0x00, 0x00, 0x00, 0x00, 0x00, 0x00, 0x07, 0x00, 0x16, 0x00, 0x00, 0x00, 0x00, 0x00, 0x00, 0x01, 0x20, 0x00, 0x00, 0x00, 0x3c, 0x00, 0x00, 0x00, 0x02, 0x00, 0x00, 0x00, 0x00, 0x00, 0x00, 0x02, 0x48, 0x00, 0x00, 0x00, 0x0c, 0x00, 0x0c, 0x00, 0x00, 0x00, 0x00, 0x00, 0x08, 0x00, 0x04, 0x00, 0x0c, 0x00, 0x00, 0x00, 0x08, 0x00, 0x00, 0x00, 0x10, 0x00, 0x00, 0x00, 0x01, 0x00, 0x00, 0x00, 0x00, 0x00, 0x00, 0x00, 0x00, 0x00, 0x00, 0x00, 0x01, 0x00, 0x00, 0x00, 0xbf, 0xb2, 0xc4, 0x38, 0x11, 0x00, 0x00, 0x00, 0x74, 0x66, 0x6c, 0x2e, 0x70, 0x73, 0x65, 0x75, 0x64, 0x6f, 0x5f, 0x71, 0x63, 0x6f, 0x6e, 0x73, 0x74, 0x00, 0x00, 0x00, 0x01, 0x00, 0x00, 0x00, 0x01, 0x00, 0x00, 0x00, 0x00, 0x00, 0x16, 0x00, 0x1c, 0x00, 0x18, 0x00, 0x00, 0x00, 0x14, 0x00, 0x10, 0x00, 0x0c, 0x00, 0x00, 0x00, 0x00, 0x00, 0x08, 0x00, 0x07, 0x00, 0x16, 0x00, 0x00, 0x00, 0x00, 0x00, 0x00, 0x01, 0x14, 0x00, 0x00, 0x00, 0x20, 0x00, 0x00, 0x00, 0x20, 0x00, 0x00, 0x00, 0x01, 0x00, 0x00, 0x00, 0x40, 0x00, 0x00, 0x00, 0x02, 0x00, 0x00, 0x00, 0xff, 0xff, 0xff, 0xff, 0x0b, 0x00, 0x00, 0x00, 0x04, 0x00, 0x04, 0x00, 0x04, 0x00, 0x00, 0x00, 0x20, 0x00, 0x00, 0x00, 0x73, 0x65, 0x72, 0x76, 0x69, 0x6e, 0x67, 0x5f, 0x64, 0x65, 0x66, 0x61, 0x75, 0x6c, 0x74, 0x5f, 0x6b, 0x65, 0x72, 0x61, 0x73, 0x5f, 0x74, 0x65, 0x6e, 0x73, 0x6f, 0x72, 0x5f, 0x34, 0x3a, 0x30, 0x00, 0x00, 0x00, 0x00, 0x02, 0x00, 0x00, 0x00, 0x01, 0x00, 0x00, 0x00, 0x0b, 0x00, 0x00, 0x00, 0x05, 0x00, 0x00, 0x00, 0x6c, 0x00, 0x00, 0x00, 0x4c, 0x00, 0x00, 0x00, 0x2c, 0x00, 0x00, 0x00, 0x18, 0x00, 0x00, 0x00, 0x04, 0x00, 0x00, 0x00, 0xd0, 0xff, 0xff, 0xff, 0x0e, 0x00, 0x00, 0x00, 0x02, 0x00, 0x00, 0x00, 0x00, 0x00, 0x00, 0x0e, 0xe0, 0xff, 0xff, 0xff, 0x06, 0x00, 0x00, 0x00, 0x02, 0x00, 0x00, 0x00, 0x00, 0x00, 0x00, 0x06, 0xf0, 0xff, 0xff, 0xff, 0x19, 0x00, 0x00, 0x00, 0x02, 0x00, 0x00, 0x00, 0x00, 0x00, 0x00, 0x19, 0x0c, 0x00, 0x10, 0x00, 0x0f, 0x00, 0x00, 0x00, 0x08, 0x00, 0x04, 0x00, 0x0c, 0x00, 0x00, 0x00, 0x09, 0x00, 0x00, 0x00, 0x04, 0x00, 0x00, 0x00, 0x00, 0x00, 0x00, 0x09, 0x0c, 0x00, 0x0c, 0x00, 0x0b, 0x00, 0x00, 0x00, 0x00, 0x00, 0x04, 0x00, 0x0c, 0x00, 0x00, 0x00, 0x72, 0x00, 0x00, 0x00, 0x00, 0x00, 0x00, 0x72
};

const unsigned int nirvana_model_data_len = 5960;

#ifndef NIRVANA_MODEL_DATA_H
#define NIRVANA_MODEL_DATA_H

const unsigned char nirvana_model_data[] = {
  0x1c, 0x00, 0x00, 0x00, 0x54, 0x46, 0x4c, 0x33, 0x14, 0x00, 0x20, 0x00, 0x1c, 0x00, 0x18, 0x00, 0x14, 0x00, 0x10, 0x00, 0x0c, 0x00, 0x00, 0x00, 0x08, 0x00, 0x04, 0x00, 0x14, 0x00, 0x00, 0x00, 0x1c, 0x00, 0x00, 0x00, 0xac, 0x00, 0x00, 0x00, 0x04, 0x01, 0x00, 0x00, 0xdc, 0x06, 0x00, 0x00, 0xec, 0x06, 0x00, 0x00, 0x98, 0x16, 0x00, 0x00, 0x03, 0x00, 0x00, 0x00, 0x01, 0x00, 0x00, 0x00, 0x04, 0x00, 0x00, 0x00, 0x4e, 0xf8, 0xff, 0xff, 0x0c, 0x00, 0x00, 0x00, 0x1c, 0x00, 0x00, 0x00, 0x5c, 0x00, 0x00, 0x00, 0x0f, 0x00, 0x00, 0x00, 0x73, 0x65, 0x72, 0x76, 0x69, 0x6e, 0x67, 0x5f, 0x64, 0x65, 0x66, 0x61, 0x75, 0x6c, 0x74, 0x00, 0x02, 0x00, 0x00, 0x00, 0x24, 0x00, 0x00, 0x00, 0x04, 0x00, 0x00, 0x00, 0x74, 0xff, 0xff, 0xff, 0x11, 0x00, 0x00, 0x00, 0x04, 0x00, 0x00, 0x00, 0x08, 0x00, 0x00, 0x00, 0x6f, 0x75, 0x74, 0x70, 0x75, 0x74, 0x5f, 0x31, 0x00, 0x00, 0x00, 0x00, 0x90, 0xff, 0xff, 0xff, 0x0e, 0x00, 0x00, 0x00, 0x04, 0x00, 0x00, 0x00, 0x08, 0x00, 0x00, 0x00, 0x6f, 0x75, 0x74, 0x70, 0x75, 0x74, 0x5f, 0x30, 0x00, 0x00, 0x00, 0x00, 0x01, 0x00, 0x00, 0x00, 0x04, 0x00, 0x00, 0x00, 0x7a, 0xf8, 0xff, 0xff, 0x04, 0x00, 0x00, 0x00, 0x0e, 0x00, 0x00, 0x00, 0x6b, 0x65, 0x72, 0x61, 0x73, 0x5f, 0x74, 0x65, 0x6e, 0x73, 0x6f, 0x72, 0x5f, 0x34, 0x00, 0x00, 0x02, 0x00, 0x00, 0x00, 0x34, 0x00, 0x00, 0x00, 0x04, 0x00, 0x00, 0x00, 0xdc, 0xff, 0xff, 0xff, 0x14, 0x00, 0x00, 0x00, 0x04, 0x00, 0x00, 0x00, 0x13, 0x00, 0x00, 0x00, 0x43, 0x4f, 0x4e, 0x56, 0x45, 0x52, 0x53, 0x49, 0x4f, 0x4e, 0x5f, 0x4d, 0x45, 0x54, 0x41, 0x44, 0x41, 0x54, 0x41, 0x00, 0x08, 0x00, 0x0c, 0x00, 0x08, 0x00, 0x04, 0x00, 0x08, 0x00, 0x00, 0x00, 0x13, 0x00, 0x00, 0x00, 0x04, 0x00, 0x00, 0x00, 0x13, 0x00, 0x00, 0x00, 0x6d, 0x69, 0x6e, 0x5f, 0x72, 0x75, 0x6e, 0x74, 0x69, 0x6d, 0x65, 0x5f, 0x76, 0x65, 0x72, 0x73, 0x69, 0x6f, 0x6e, 0x00, 0x15, 0x00, 0x00, 0x00, 0xd4, 0x05, 0x00, 0x00, 0xcc, 0x05, 0x00, 0x00, 0xb8, 0x05, 0x00, 0x00, 0x98, 0x05, 0x00, 0x00, 0x7c, 0x05, 0x00, 0x00, 0x3c, 0x05, 0x00, 0x00, 0xec, 0x04, 0x00, 0x00, 0xdc, 0x02, 0x00, 0x00, 0x4c, 0x02, 0x00, 0x00, 0xdc, 0x00, 0x00, 0x00, 0xd4, 0x00, 0x00, 0x00, 0xcc, 0x00, 0x00, 0x00, 0xc4, 0x00, 0x00, 0x00, 0xbc, 0x00, 0x00, 0x00, 0xb4, 0x00, 0x00, 0x00, 0xac, 0x00, 0x00, 0x00, 0xa4, 0x00, 0x00, 0x00, 0x9c, 0x00, 0x00, 0x00, 0x94, 0x00, 0x00, 0x00, 0x74, 0x00, 0x00, 0x00, 0x04, 0x00, 0x00, 0x00, 0x4a, 0xf9, 0xff, 0xff, 0x04, 0x00, 0x00, 0x00, 0x60, 0x00, 0x00, 0x00, 0x0c, 0x00, 0x00, 0x00, 0x08, 0x00, 0x0e, 0x00, 0x08, 0x00, 0x04, 0x00, 0x08, 0x00, 0x00, 0x00, 0x10, 0x00, 0x00, 0x00, 0x28, 0x00, 0x00, 0x00, 0x00, 0x00, 0x06, 0x00, 0x08, 0x00, 0x04, 0x00, 0x06, 0x00, 0x00, 0x00, 0x04, 0x00, 0x00, 0x00, 0x01, 0x00, 0x00, 0x00, 0xeb, 0x03, 0x00, 0x00, 0x0c, 0x00, 0x18, 0x00, 0x14, 0x00, 0x10, 0x00, 0x0c, 0x00, 0x04, 0x00, 0x0c, 0x00, 0x00, 0x00, 0xca, 0x9a, 0x62, 0x65, 0x8c, 0x6e, 0xd6, 0xfc, 0x02, 0x00, 0x00, 0x00, 0x02, 0x00, 0x00, 0x00, 0x04, 0x00, 0x00, 0x00, 0x06, 0x00, 0x00, 0x00, 0x32, 0x2e, 0x32, 0x30, 0x2e, 0x30, 0x00, 0x00, 0xb6, 0xf9, 0xff, 0xff, 0x04, 0x00, 0x00, 0x00, 0x10, 0x00, 0x00, 0x00, 0x31, 0x2e, 0x31, 0x34, 0x2e, 0x30, 0x00, 0x00, 0x00, 0x00, 0x00, 0x00, 0x00, 0x00, 0x00, 0x00, 0x7c, 0xeb, 0xff, 0xff, 0x80, 0xeb, 0xff, 0xff, 0x84, 0xeb, 0xff, 0xff, 0x88, 0xeb, 0xff, 0xff, 0x8c, 0xeb, 0xff, 0xff, 0x90, 0xeb, 0xff, 0xff, 0x94, 0xeb, 0xff, 0xff, 0x98, 0xeb, 0xff, 0xff, 0x9c, 0xeb, 0xff, 0xff, 0xf6, 0xf9, 0xff, 0xff, 0x04, 0x00, 0x00, 0x00, 0x60, 0x01, 0x00, 0x00, 0x1a, 0x19, 0x40, 0xad, 0xce, 0xb3, 0xb6, 0x7f, 0xc9, 0x31, 0x64, 0x7f, 0xcd, 0x0e, 0xc3, 0x03, 0x10, 0x22, 0xcb, 0xed, 0x10, 0x43, 0x7f, 0x30, 0x86, 0xce, 0xd1, 0x57, 0xe9, 0xa7, 0x13, 0xc4, 0xe2, 0xb2, 0xf8, 0x7f, 0x3e, 0xbf, 0xed, 0xfb, 0x48, 0x07, 0xc2, 0xcf, 0xa6, 0x11, 0xfd, 0x9d, 0x34, 0x0a, 0x39, 0x9d, 0x01, 0x10, 0x81, 0x2d, 0xe5, 0x8e, 0x6c, 0x32, 0x05, 0x58, 0xf6, 0x81, 0x13, 0x1f, 0x17, 0x61, 0xad, 0xb9, 0xcd, 0xf1, 0xf0, 0x15, 0x4b, 0x81, 0xed, 0xdd, 0xf8, 0xc0, 0xf5, 0xe5, 0x81, 0x13, 0x04, 0xd5, 0x89, 0xa9, 0xa0, 0x64, 0x08, 0xbe, 0xd8, 0xf3, 0xf2, 0x65, 0x19, 0x29, 0x81, 0x38, 0xcc, 0x26, 0x52, 0xd0, 0x0c, 0xe9, 0x81, 0x44, 0x0f, 0xbf, 0x0f, 0x0e, 0x17, 0x02, 0x08, 0x4e, 0x05, 0xc9, 0xe7, 0xc0, 0x7f, 0x1c, 0x68, 0x04, 0x81, 0xfc, 0xb5, 0x98, 0x07, 0xc7, 0x06, 0xde, 0xbe, 0x23, 0x48, 0x9d, 0x23, 0x2b, 0x0e, 0x81, 0xdf, 0xdb, 0xa7, 0x06, 0x81, 0xff, 0xf5, 0xfb, 0x2e, 0x19, 0x13, 0x0f, 0xc1, 0xd6, 0x8f, 0x58, 0x0b, 0x9c, 0xbb, 0x81, 0x2c, 0x1e, 0x0a, 0x48, 0x2f, 0x39, 0xd8, 0x40, 0x16, 0x14, 0x05, 0x17, 0x81, 0xdb, 0x3a, 0xd6, 0xe9, 0xfc, 0x00, 0x48, 0xd8, 0xf1, 0x9d, 0x81, 0x2d, 0xe2, 0x64, 0xf4, 0x2e, 0x1a, 0x57, 0x13, 0xc7, 0x2a, 0x7f, 0x27, 0xe1, 0xe6, 0xd2, 0x01, 0xe5, 0x9b, 0xd4, 0x7a, 0x78, 0x7f, 0x3a, 0xcb, 0xa5, 0x1f, 0x4d, 0x5e, 0xf9, 0x5c, 0xf8, 0x6b, 0x26, 0x7f, 0x06, 0x05, 0x79, 0xd5, 0x36, 0xa7, 0x25, 0x7f, 0x48, 0xda, 0x4e, 0x66, 0x05, 0x81, 0xd5, 0xa0, 0x62, 0x74, 0x0e, 0x0b, 0xe2, 0x0b, 0x32, 0x42, 0xbc, 0xc6, 0x46, 0x4f, 0xee, 0xf2, 0x4f, 0x38, 0x4e, 0x17, 0x7f, 0x67, 0x02, 0xf4, 0xb3, 0x81, 0xc8, 0x56, 0xc3, 0xc8, 0x0b, 0xfe, 0x81, 0xf0, 0xd9, 0x1b, 0x0e, 0xbb, 0x3b, 0x84, 0x23, 0xcd, 0x7d, 0x0f, 0x5a, 0xfc, 0xc7, 0x1e, 0x12, 0xf3, 0x82, 0x41, 0x37, 0x7f, 0x10, 0xdc, 0x03, 0x5d, 0xf9, 0x0a, 0xf6, 0x00, 0x4b, 0x14, 0x7f, 0xdc, 0x3f, 0x04, 0x58, 0x4f, 0xd6, 0xd9, 0x13, 0x09, 0x7f, 0x14, 0x08, 0x13, 0xa2, 0xcb, 0xe2, 0xe3, 0xf8, 0x81, 0x2f, 0x29, 0xb8, 0x7f, 0xce, 0xf2, 0x42, 0x20, 0x88, 0xc7, 0x3e, 0xb7, 0xdc, 0x19, 0x7f, 0x8f, 0x60, 0x2a, 0x04, 0xf9, 0x32, 0x0a, 0x17, 0xda, 0x7b, 0x23, 0x81, 0x96, 0x73, 0xb3, 0xaf, 0xb7, 0x0c, 0x4f, 0x4d, 0x94, 0x62, 0xfb, 0xff, 0xff, 0x04, 0x00, 0x00, 0x00, 0x80, 0x00, 0x00, 0x00, 0x92, 0x17, 0x00, 0x00, 0x7f, 0x0c, 0x00, 0x00, 0xa6, 0xf3, 0xff, 0xff, 0x0f, 0xfd, 0xff, 0xff, 0xfd, 0x00, 0x00, 0x00, 0xfa, 0xfa, 0xff, 0xff, 0xa8, 0xf1, 0xff, 0xff, 0x46, 0xfc, 0xff, 0xff, 0x87, 0xf3, 0xff, 0xff, 0xa7, 0x0b, 0x00, 0x00, 0x0a, 0x0a, 0x00, 0x00, 0xfe, 0x03, 0x00, 0x00, 0x9e, 0x0b, 0x00, 0x00, 0xdd, 0x02, 0x00, 0x00, 0xce, 0xf8, 0xff, 0xff, 0x4c, 0x0a, 0x00, 0x00, 0xab, 0x06, 0x00, 0x00, 0xf0, 0x09, 0x00, 0x00, 0xe5, 0x19, 0x00, 0x00, 0x6d, 0xfc, 0xff, 0xff, 0xc6, 0xfd, 0xff, 0xff, 0x73, 0x0b, 0x00, 0x00, 0xd9, 0xfa, 0xff, 0xff, 0xb6, 0x0e, 0x00, 0x00, 0x75, 0x12, 0x00, 0x00, 0xd5, 0x0c, 0x00, 0x00, 0x41, 0xee, 0xff, 0xff, 0x0f, 0x02, 0x00, 0x00, 0x0f, 0x0b, 0x00, 0x00, 0xb7, 0x0f, 0x00, 0x00, 0x18, 0xee, 0xff, 0xff, 0x9c, 0x19, 0x00, 0x00, 0xee, 0xfb, 0xff, 0xff, 0x04, 0x00, 0x00, 0x00, 0x00, 0x02, 0x00, 0x00, 0xf7, 0x0f, 0xe8, 0x15, 0xf8, 0xf3, 0x22, 0xfd, 0xd7, 0x3d, 0xeb, 0x18, 0xdd, 0x00, 0xfd, 0x19, 0xde, 0xf9, 0x05, 0xe4, 0xdf, 0x14, 0xa8, 0x2b, 0x2b, 0x54, 0x83, 0x4b, 0xe9, 0x17, 0x81, 0x18, 0x1d, 0xf1, 0xf0, 0xe2, 0xc7, 0x17, 0x17, 0x2d, 0x81, 0x1b, 0xf1, 0xe3, 0xd1, 0xf6, 0xe0, 0xf6, 0x23, 0x13, 0xfd, 0xf9, 0x21, 0xf8, 0x16, 0x31, 0x08, 0xf7, 0xdb, 0xf9, 0xf1, 0x0c, 0x04, 0xf6, 0x1e, 0xdd, 0xe5, 0x19, 0x06, 0xcb, 0xcc, 0x8f, 0xb9, 0x28, 0x22, 0x11, 0xec, 0x09, 0xde, 0x19, 0x44, 0x40, 0x34, 0xd2, 0xe5, 0xf4, 0xab, 0x17, 0x23, 0x3f, 0x8e, 0x3a, 0x3b, 0x16, 0x81, 0x5c, 0x10, 0xd6, 0xd7, 0xe1, 0xd8, 0xf8, 0x0a, 0x1d, 0x9a, 0xf0, 0xb2, 0xb6, 0xf8, 0xd6, 0x6f, 0x1c, 0x6b, 0xdd, 0xf5, 0x40, 0x43, 0xf3, 0x28, 0x7f, 0x66, 0xe6, 0x00, 0x07, 0xfb, 0x2d, 0xc1, 0x02, 0x63, 0x19, 0xf2, 0xdd, 0xe9, 0xaf, 0xf7, 0x37, 0x10, 0x97, 0xea, 0x55, 0xa5, 0x7f, 0x73, 0xfd, 0xc2, 0x54, 0xde, 0x4b, 0x26, 0xcb, 0xed, 0x04, 0x39, 0xbf, 0xe5, 0xa1, 0x16, 0x47, 0x01, 0xc5, 0x04, 0x28, 0xba, 0x03, 0xd9, 0x01, 0x0a, 0xf6, 0x0d, 0xfd, 0xf5, 0x01, 0x25, 0xf2, 0xd2, 0xe9, 0x03, 0x01, 0x24, 0x04, 0x05, 0x31, 0xec, 0x17, 0x20, 0x34, 0x81, 0x52, 0x0b, 0xfd, 0x8b, 0x37, 0x09, 0x81, 0x18, 0x08, 0x1e, 0x35, 0x05, 0x20, 0x1b, 0xa0, 0x9c, 0x21, 0x30, 0xb9, 0x06, 0x81, 0xbf, 0xf4, 0xe8, 0xd2, 0xfb, 0xd8, 0xfb, 0xf8, 0xfb, 0xcb, 0xe7, 0xe9, 0x11, 0x01, 0xea, 0x01, 0x77, 0x30, 0x3e, 0x30, 0xd2, 0xc4, 0x44, 0x33, 0x96, 0x0f, 0x14, 0xb8, 0xba, 0xf6, 0xb4, 0xd4, 0x5a, 0x27, 0x7f, 0x37, 0xd2, 0x74, 0x8b, 0x9c, 0x50, 0x09, 0x0c, 0x35, 0x92, 0x12, 0x05, 0x1f, 0xcb, 0x63, 0xd6, 0x3f, 0x2b, 0x3a, 0x4e, 0x3b, 0x42, 0x38, 0x7f, 0xd9, 0xda, 0xde, 0xd7, 0x75, 0x1c, 0x0e, 0x5f, 0xd6, 0x45, 0x64, 0x38, 0x2a, 0xb2, 0x19, 0xda, 0xf4, 0xbf, 0x29, 0xfa, 0xe5, 0x16, 0xd9, 0xc4, 0x01, 0xdb, 0xdb, 0xa0, 0x92, 0xf3, 0xe2, 0x0b, 0x50, 0xeb, 0x42, 0x81, 0x11, 0x19, 0x13, 0x3f, 0x1d, 0x07, 0x44, 0xb7, 0x49, 0x4b, 0x5a, 0xe4, 0xfa, 0x08, 0x10, 0xaf, 0x42, 0x11, 0x5b, 0x58, 0x65, 0x4c, 0x34, 0x3a, 0x3a, 0x01, 0xca, 0x52, 0x53, 0xa0, 0x85, 0x85, 0xe9, 0x27, 0xf2, 0xd8, 0xf8, 0xed, 0x43, 0x38, 0x03, 0xc6, 0x06, 0x3b, 0x7f, 0x95, 0xc9, 0x37, 0xdf, 0xc4, 0xa7, 0x08, 0x36, 0x08, 0xf3, 0x3c, 0x2b, 0x03, 0xb8, 0x8c, 0x36, 0x08, 0x0d, 0xde, 0x81, 0xcf, 0xf3, 0x0f, 0x20, 0x2f, 0x1e, 0x28, 0xe0, 0xe7, 0xea, 0x27, 0xc9, 0x18, 0xef, 0x0b, 0x08, 0x6a, 0xaa, 0xae, 0xbd, 0xb7, 0xb0, 0xae, 0xde, 0xf4, 0xfa, 0xbb, 0x5a, 0xaa, 0x2e, 0x26, 0x39, 0xe0, 0x59, 0xbb, 0x81, 0x31, 0xc0, 0xd6, 0xdd, 0x13, 0x77, 0xd8, 0x6b, 0x78, 0x34, 0x89, 0x75, 0x12, 0x03, 0x03, 0xc3, 0xf9, 0xe4, 0x29, 0x2c, 0x2e, 0xe1, 0x18, 0xdc, 0x3a, 0x39, 0xe3, 0x23, 0x22, 0x14, 0x45, 0x01, 0x00, 0xf5, 0xe0, 0x09, 0x0f, 0x04, 0xdd, 0x02, 0xec, 0xda, 0x81, 0x1e, 0x05, 0xab, 0x1d, 0xfd, 0x0b, 0x2e, 0x0d, 0x0d, 0x05, 0xd4, 0xaf, 0x03, 0x1e, 0x9c, 0xdb, 0x81, 0xf0, 0x1b, 0x19, 0xcd, 0xcb, 0xe7, 0x06, 0x08, 0x0b, 0x02, 0x01, 0x03, 0xf6, 0xfe, 0xe7, 0x09, 0x3f, 0x12, 0xdf, 0xea, 0x03, 0x36, 0x46, 0x3f, 0xcf, 0xa7, 0xb8, 0x3e, 0x4a, 0x2b, 0x33, 0x4e, 0x21, 0xfa, 0x51, 0xf3, 0xf9, 0xfe, 0xa8, 0xe7, 0x18, 0x74, 0xbe, 0x54, 0x25, 0xcf, 0x81, 0x04, 0xfa, 0xfd, 0xff, 0xff, 0x04, 0x00, 0x00, 0x00, 0x40, 0x00, 0x00, 0x00, 0x78, 0x0a, 0x00, 0x00, 0x68, 0x04, 0x00, 0x00, 0x1c, 0x0c, 0x00, 0x00, 0x63, 0x04, 0x00, 0x00, 0xdf, 0x07, 0x00, 0x00, 0xf3, 0x0c, 0x00, 0x00, 0xac, 0xfe, 0xff, 0xff, 0x2d, 0x09, 0x00, 0x00, 0xcd, 0x03, 0x00, 0x00, 0x5a, 0x0d, 0x00, 0x00, 0x32, 0x01, 0x00, 0x00, 0xae, 0x00, 0x00, 0x00, 0x40, 0x10, 0x00, 0x00, 0xa4, 0x08, 0x00, 0x00, 0xfc, 0x02, 0x00, 0x00, 0x1d, 0x0e, 0x00, 0x00, 0x46, 0xfe, 0xff, 0xff, 0x04, 0x00, 0x00, 0x00, 0x30, 0x00, 0x00, 0x00, 0x45, 0xe4, 0x81, 0xfb, 0xd2, 0x3e, 0x26, 0xe7, 0xcd, 0x8c, 0xf2, 0x47, 0xc9, 0x3f, 0x0a, 0x11, 0x5a, 0xa4, 0x7f, 0xad, 0x0d, 0x48, 0xb0, 0xf4, 0xe1, 0xf5, 0xc7, 0xb8, 0x0e, 0x50, 0xb0, 0x1b, 0x07, 0x33, 0xa4, 0xd9, 0x1c, 0x81, 0xe1, 0x4e, 0x27, 0x1b, 0x0e, 0x3d, 0x86, 0xe3, 0xc5, 0xf2, 0x82, 0xfe, 0xff, 0xff, 0x04, 0x00, 0x00, 0x00, 0x0c, 0x00, 0x00, 0x00, 0x3c, 0xfe, 0xff, 0xff, 0x85, 0xfe, 0xff, 0xff, 0xa9, 0x01, 0x00, 0x00, 0x9a, 0xfe, 0xff, 0xff, 0x04, 0x00, 0x00, 0x00, 0x10, 0x00, 0x00, 0x00, 0xde, 0xfa, 0x1c, 0x26, 0xa7, 0x26, 0x5f, 0xfa, 0x81, 0x34, 0x1d, 0xe9, 0xdf, 0x65, 0x05, 0x62, 0xb6, 0xfe, 0xff, 0xff, 0x04, 0x00, 0x00, 0x00, 0x04, 0x00, 0x00, 0x00, 0x16, 0xe9, 0xff, 0xff, 0x70, 0xf0, 0xff, 0xff, 0x74, 0xf0, 0xff, 0xff, 0x0f, 0x00, 0x00, 0x00, 0x4d, 0x4c, 0x49, 0x52, 0x20, 0x43, 0x6f, 0x6e, 0x76, 0x65, 0x72, 0x74, 0x65, 0x64, 0x2e, 0x00, 0x01, 0x00, 0x00, 0x00, 0x14, 0x00, 0x00, 0x00, 0x00, 0x00, 0x0e, 0x00, 0x18, 0x00, 0x14, 0x00, 0x10, 0x00, 0x0c, 0x00, 0x08, 0x00, 0x04, 0x00, 0x0e, 0x00, 0x00, 0x00, 0x14, 0x00, 0x00, 0x00, 0x1c, 0x00, 0x00, 0x00, 0x0c, 0x02, 0x00, 0x00, 0x14, 0x02, 0x00, 0x00, 0x18, 0x02, 0x00, 0x00, 0x04, 0x00, 0x00, 0x00, 0x6d, 0x61, 0x69, 0x6e, 0x00, 0x00, 0x00, 0x00, 0x09, 0x00, 0x00, 0x00, 0xd4, 0x01, 0x00, 0x00, 0x84, 0x01, 0x00, 0x00, 0x38, 0x01, 0x00, 0x00, 0xf0, 0x00, 0x00, 0x00, 0xb4, 0x00, 0x00, 0x00, 0x90, 0x00, 0x00, 0x00, 0x4c, 0x00, 0x00, 0x00, 0x28, 0x00, 0x00, 0x00, 0x04, 0x00, 0x00, 0x00, 0x8a, 0xff, 0xff, 0xff, 0x0c, 0x00, 0x00, 0x00, 0x10, 0x00, 0x00, 0x00, 0x03, 0x00, 0x00, 0x00, 0x01, 0x00, 0x00, 0x00, 0x11, 0x00, 0x00, 0x00, 0x01, 0x00, 0x00, 0x00, 0x10, 0x00, 0x00, 0x00, 0xaa, 0xff, 0xff, 0xff, 0x0c, 0x00, 0x00, 0x00, 0x10, 0x00, 0x00, 0x00, 0x04, 0x00, 0x00, 0x00, 0x01, 0x00, 0x00, 0x00, 0x10, 0x00, 0x00, 0x00, 0x01, 0x00, 0x00, 0x00, 0x0f, 0x00, 0x00, 0x00, 0x32, 0xff, 0xff, 0xff, 0x14, 0x00, 0x00, 0x00, 0x00, 0x00, 0x00, 0x08, 0x10, 0x00, 0x00, 0x00, 0x14, 0x00, 0x00, 0x00, 0x01, 0x00, 0x00, 0x00, 0x48, 0xf1, 0xff, 0xff, 0x01, 0x00, 0x00, 0x00, 0x0f, 0x00, 0x00, 0x00, 0x03, 0x00, 0x00, 0x00, 0x0b, 0x00, 0x00, 0x00, 0x02, 0x00, 0x00, 0x00, 0x01, 0x00, 0x00, 0x00, 0x00, 0x00, 0x0a, 0x00, 0x10, 0x00, 0x0c, 0x00, 0x08, 0x00, 0x04, 0x00, 0x0a, 0x00, 0x00, 0x00, 0x0c, 0x00, 0x00, 0x00, 0x10, 0x00, 0x00, 0x00, 0x03, 0x00, 0x00, 0x00, 0x01, 0x00, 0x00, 0x00, 0x0e, 0x00, 0x00, 0x00, 0x01, 0x00, 0x00, 0x00, 0x0d, 0x00, 0x00, 0x00, 0x4a, 0xff, 0xff, 0xff, 0x1c, 0x00, 0x00, 0x00, 0x00, 0x00, 0x00, 0x09, 0x1c, 0x00, 0x00, 0x00, 0x20, 0x00, 0x00, 0x00, 0x02, 0x00, 0x00, 0x00, 0x00, 0x00, 0x06, 0x00, 0x08, 0x00, 0x04, 0x00, 0x06, 0x00, 0x00, 0x00, 0x00, 0x00, 0x80, 0x3f, 0x01, 0x00, 0x00, 0x00, 0x0d, 0x00, 0x00, 0x00, 0x01, 0x00, 0x00, 0x00, 0x0c, 0x00, 0x00, 0x00, 0xca, 0xff, 0xff, 0xff, 0x14, 0x00, 0x00, 0x00, 0x00, 0x00, 0x00, 0x08, 0x10, 0x00, 0x00, 0x00, 0x14, 0x00, 0x00, 0x00, 0x01, 0x00, 0x00, 0x00, 0xe0, 0xf1, 0xff, 0xff, 0x01, 0x00, 0x00, 0x00, 0x0c, 0x00, 0x00, 0x00, 0x03, 0x00, 0x00, 0x00, 0x0b, 0x00, 0x00, 0x00, 0x04, 0x00, 0x00, 0x00, 0x03, 0x00, 0x00, 0x00, 0x00, 0x00, 0x0e, 0x00, 0x18, 0x00, 0x14, 0x00, 0x10, 0x00, 0x0c, 0x00, 0x0b, 0x00, 0x04, 0x00, 0x0e, 0x00, 0x00, 0x00, 0x14, 0x00, 0x00, 0x00, 0x00, 0x00, 0x00, 0x08, 0x14, 0x00, 0x00, 0x00, 0x18, 0x00, 0x00, 0x00, 0x01, 0x00, 0x00, 0x00, 0xb6, 0xff, 0xff, 0xff, 0x00, 0x00, 0x00, 0x01, 0x01, 0x00, 0x00, 0x00, 0x0b, 0x00, 0x00, 0x00, 0x03, 0x00, 0x00, 0x00, 0x0a, 0x00, 0x00, 0x00, 0x06, 0x00, 0x00, 0x00, 0x05, 0x00, 0x00, 0x00, 0x00, 0x00, 0x0e, 0x00, 0x1a, 0x00, 0x14, 0x00, 0x10, 0x00, 0x0c, 0x00, 0x0b, 0x00, 0x04, 0x00, 0x0e, 0x00, 0x00, 0x00, 0x1c, 0x00, 0x00, 0x00, 0x00, 0x00, 0x00, 0x08, 0x1c, 0x00, 0x00, 0x00, 0x20, 0x00, 0x00, 0x00, 0x01, 0x00, 0x00, 0x00, 0x00, 0x00, 0x06, 0x00, 0x08, 0x00, 0x07, 0x00, 0x06, 0x00, 0x00, 0x00, 0x00, 0x00, 0x00, 0x01, 0x01, 0x00, 0x00, 0x00, 0x0a, 0x00, 0x00, 0x00, 0x03, 0x00, 0x00, 0x00, 0x09, 0x00, 0x00, 0x00, 0x08, 0x00, 0x00, 0x00, 0x07, 0x00, 0x00, 0x00, 0x00, 0x00, 0x0a, 0x00, 0x0c, 0x00, 0x00, 0x00, 0x08, 0x00, 0x04, 0x00, 0x0a, 0x00, 0x00, 0x00, 0x08, 0x00, 0x00, 0x00, 0x0c, 0x00, 0x00, 0x00, 0x01, 0x00, 0x00, 0x00, 0x09, 0x00, 0x00, 0x00, 0x01, 0x00, 0x00, 0x00, 0x00, 0x00, 0x00, 0x00, 0x02, 0x00, 0x00, 0x00, 0x11, 0x00, 0x00, 0x00, 0x0e, 0x00, 0x00, 0x00, 0x01, 0x00, 0x00, 0x00, 0x00, 0x00, 0x00, 0x00, 0x12, 0x00, 0x00, 0x00, 0x04, 0x0d, 0x00, 0x00, 0x80, 0x0c, 0x00, 0x00, 0x00, 0x0c, 0x00, 0x00, 0x84, 0x0b, 0x00, 0x00, 0x08, 0x0b, 0x00, 0x00, 0xf4, 0x09, 0x00, 0x00, 0xd8, 0x08, 0x00, 0x00, 0x04, 0x07, 0x00, 0x00, 0x28, 0x05, 0x00, 0x00, 0xb4, 0x04, 0x00, 0x00, 0xd8, 0x03, 0x00, 0x00, 0x14, 0x03, 0x00, 0x00, 0x68, 0x02, 0x00, 0x00, 0xe4, 0x01, 0x00, 0x00, 0x88, 0x01, 0x00, 0x00, 0xe4, 0x00, 0x00, 0x00, 0x60, 0x00, 0x00, 0x00, 0x04, 0x00, 0x00, 0x00, 0x5a, 0xf3, 0xff, 0xff, 0x00, 0x00, 0x00, 0x01, 0x14, 0x00, 0x00, 0x00, 0x1c, 0x00, 0x00, 0x00, 0x1c, 0x00, 0x00, 0x00, 0x12, 0x00, 0x00, 0x00, 0x34, 0x00, 0x00, 0x00, 0x02, 0x00, 0x00, 0x00, 0xff, 0xff, 0xff, 0xff, 0x01, 0x00, 0x00, 0x00, 0x44, 0xf3, 0xff, 0xff, 0x1b, 0x00, 0x00, 0x00, 0x53, 0x74, 0x61, 0x74, 0x65, 0x66, 0x75, 0x6c, 0x50, 0x61, 0x72, 0x74, 0x69, 0x74, 0x69, 0x6f, 0x6e, 0x65, 0x64, 0x43, 0x61, 0x6c, 0x6c, 0x5f, 0x31, 0x3a, 0x31, 0x00, 0x02, 0x00, 0x00, 0x00, 0x01, 0x00, 0x00, 0x00, 0x01, 0x00, 0x00, 0x00, 0xde, 0xfb, 0xff, 0xff, 0x00, 0x00, 0x00, 0x01, 0x18, 0x00, 0x00, 0x00, 0x20, 0x00, 0x00, 0x00, 0x40, 0x00, 0x00, 0x00, 0x11, 0x00, 0x00, 0x00, 0x00, 0x00, 0x00, 0x09, 0x58, 0x00, 0x00, 0x00, 0x02, 0x00, 0x00, 0x00, 0xff, 0xff, 0xff, 0xff, 0x01, 0x00, 0x00, 0x00, 0x2c, 0xf4, 0xff, 0xff, 0x08, 0x00, 0x00, 0x00, 0x14, 0x00, 0x00, 0x00, 0x01, 0x00, 0x00, 0x00, 0x80, 0xff, 0xff, 0xff, 0xff, 0xff, 0xff, 0xff, 0x00, 0x00, 0x00, 0x00, 0x01, 0x00, 0x00, 0x00, 0x00, 0x00, 0x80, 0x3b, 0x1c, 0x00, 0x00, 0x00, 0x53, 0x74, 0x61, 0x74, 0x65, 0x66, 0x75, 0x6c, 0x50, 0x61, 0x72, 0x74, 0x69, 0x74, 0x69, 0x6f, 0x6e, 0x65, 0x64, 0x43, 0x61, 0x6c, 0x6c, 0x5f, 0x31, 0x3a, 0x31, 0x31, 0x00, 0x00, 0x00, 0x00, 0x02, 0x00, 0x00, 0x00, 0x01, 0x00, 0x00, 0x00, 0x01, 0x00, 0x00, 0x00, 0x5e, 0xfc, 0xff, 0xff, 0x00, 0x00, 0x00, 0x01, 0x18, 0x00, 0x00, 0x00, 0x20, 0x00, 0x00, 0x00, 0x3c, 0x00, 0x00, 0x00, 0x10, 0x00, 0x00, 0x00, 0x00, 0x00, 0x00, 0x09, 0x78, 0x00, 0x00, 0x00, 0x02, 0x00, 0x00, 0x00, 0xff, 0xff, 0xff, 0xff, 0x01, 0x00, 0x00, 0x00, 0xac, 0xf4, 0xff, 0xff, 0x08, 0x00, 0x00, 0x00, 0x10, 0x00, 0x00, 0x00, 0x01, 0x00, 0x00, 0x00, 0x24, 0x00, 0x00, 0x00, 0x00, 0x00, 0x00, 0x00, 0x01, 0x00, 0x00, 0x00, 0x2a, 0x1c, 0xa5, 0x3c, 0x40, 0x00, 0x00, 0x00, 0x66, 0x75, 0x6e, 0x63, 0x74, 0x69, 0x6f, 0x6e, 0x61, 0x6c, 0x5f, 0x31, 0x5f, 0x31, 0x2f, 0x77, 0x73, 0x69, 0x5f, 0x73, 0x63, 0x6f, 0x72, 0x65, 0x5f, 0x31, 0x2f, 0x4d, 0x61, 0x74, 0x4d, 0x75, 0x6c, 0x3b, 0x66, 0x75, 0x6e, 0x63, 0x74, 0x69, 0x6f, 0x6e, 0x61, 0x6c, 0x5f, 0x31, 0x5f, 0x31, 0x2f, 0x77, 0x73, 0x69, 0x5f, 0x73, 0x63, 0x6f, 0x72, 0x65, 0x5f, 0x31, 0x2f, 0x41, 0x64, 0x64, 0x00, 0x00, 0x00, 0x00, 0x02, 0x00, 0x00, 0x00, 0x01, 0x00, 0x00, 0x00, 0x01, 0x00, 0x00, 0x00, 0xd2, 0xf4, 0xff, 0xff, 0x00, 0x00, 0x00, 0x01, 0x14, 0x00, 0x00, 0x00, 0x1c, 0x00, 0x00, 0x00, 0x1c, 0x00, 0x00, 0x00, 0x0f, 0x00, 0x00, 0x00, 0x34, 0x00, 0x00, 0x00, 0x02, 0x00, 0x00, 0x00, 0xff, 0xff, 0xff, 0xff, 0x03, 0x00, 0x00, 0x00, 0xbc, 0xf4, 0xff, 0xff, 0x1b, 0x00, 0x00, 0x00, 0x53, 0x74, 0x61, 0x74, 0x65, 0x66, 0x75, 0x6c, 0x50, 0x61, 0x72, 0x74, 0x69, 0x74, 0x69, 0x6f, 0x6e, 0x65, 0x64, 0x43, 0x61, 0x6c, 0x6c, 0x5f, 0x31, 0x3a, 0x30, 0x00, 0x02, 0x00, 0x00, 0x00, 0x01, 0x00, 0x00, 0x00, 0x03, 0x00, 0x00, 0x00, 0x56, 0xfd, 0xff, 0xff, 0x00, 0x00, 0x00, 0x01, 0x18, 0x00, 0x00, 0x00, 0x20, 0x00, 0x00, 0x00, 0x40, 0x00, 0x00, 0x00, 0x0e, 0x00, 0x00, 0x00, 0x00, 0x00, 0x00, 0x09, 0x58, 0x00, 0x00, 0x00, 0x02, 0x00, 0x00, 0x00, 0xff, 0xff, 0xff, 0xff, 0x03, 0x00, 0x00, 0x00, 0xa4, 0xf5, 0xff, 0xff, 0x08, 0x00, 0x00, 0x00, 0x14, 0x00, 0x00, 0x00, 0x01, 0x00, 0x00, 0x00, 0x80, 0xff, 0xff, 0xff, 0xff, 0xff, 0xff, 0xff, 0x00, 0x00, 0x00, 0x00, 0x01, 0x00, 0x00, 0x00, 0x00, 0x00, 0x80, 0x3b, 0x1c, 0x00, 0x00, 0x00, 0x53, 0x74, 0x61, 0x74, 0x65, 0x66, 0x75, 0x6c, 0x50, 0x61, 0x72, 0x74, 0x69, 0x74, 0x69, 0x6f, 0x6e, 0x65, 0x64, 0x43, 0x61, 0x6c, 0x6c, 0x5f, 0x31, 0x3a, 0x30, 0x31, 0x00, 0x00, 0x00, 0x00, 0x02, 0x00, 0x00, 0x00, 0x01, 0x00, 0x00, 0x00, 0x03, 0x00, 0x00, 0x00, 0xd6, 0xfd, 0xff, 0xff, 0x00, 0x00, 0x00, 0x01, 0x18, 0x00, 0x00, 0x00, 0x20, 0x00, 0x00, 0x00, 0x40, 0x00, 0x00, 0x00, 0x0d, 0x00, 0x00, 0x00, 0x00, 0x00, 0x00, 0x09, 0x80, 0x00, 0x00, 0x00, 0x02, 0x00, 0x00, 0x00, 0xff, 0xff, 0xff, 0xff, 0x03, 0x00, 0x00, 0x00, 0x24, 0xf6, 0xff, 0xff, 0x08, 0x00, 0x00, 0x00, 0x14, 0x00, 0x00, 0x00, 0x01, 0x00, 0x00, 0x00, 0x0c, 0x00, 0x00, 0x00, 0x00, 0x00, 0x00, 0x00, 0x00, 0x00, 0x00, 0x00, 0x01, 0x00, 0x00, 0x00, 0x3f, 0xe0, 0xee, 0x3c, 0x46, 0x00, 0x00, 0x00, 0x66, 0x75, 0x6e, 0x63, 0x74, 0x69, 0x6f, 0x6e, 0x61, 0x6c, 0x5f, 0x31, 0x5f, 0x31, 0x2f, 0x72, 0x69, 0x73, 0x6b, 0x5f, 0x6c, 0x65, 0x76, 0x65, 0x6c, 0x5f, 0x31, 0x2f, 0x4d, 0x61, 0x74, 0x4d, 0x75, 0x6c, 0x3b, 0x66, 0x75, 0x6e, 0x63, 0x74, 0x69, 0x6f, 0x6e, 0x61, 0x6c, 0x5f, 0x31, 0x5f, 0x31, 0x2f, 0x72, 0x69, 0x73, 0x6b, 0x5f, 0x6c, 0x65, 0x76, 0x65, 0x6c, 0x5f, 0x31, 0x2f, 0x42, 0x69, 0x61, 0x73, 0x41, 0x64, 0x64, 0x00, 0x00, 0x02, 0x00, 0x00, 0x00, 0x01, 0x00, 0x00, 0x00, 0x03, 0x00, 0x00, 0x00, 0x7e, 0xfe, 0xff, 0xff, 0x00, 0x00, 0x00, 0x01, 0x18, 0x00, 0x00, 0x00, 0x20, 0x00, 0x00, 0x00, 0x40, 0x00, 0x00, 0x00, 0x0c, 0x00, 0x00, 0x00, 0x00, 0x00, 0x00, 0x09, 0x98, 0x00, 0x00, 0x00, 0x02, 0x00, 0x00, 0x00, 0xff, 0xff, 0xff, 0xff, 0x10, 0x00, 0x00, 0x00, 0xcc, 0xf6, 0xff, 0xff, 0x08, 0x00, 0x00, 0x00, 0x14, 0x00, 0x00, 0x00, 0x01, 0x00, 0x00, 0x00, 0x80, 0xff, 0xff, 0xff, 0xff, 0xff, 0xff, 0xff, 0x00, 0x00, 0x00, 0x00, 0x01, 0x00, 0x00, 0x00, 0x8a, 0x5d, 0x9c, 0x3c, 0x5e, 0x00, 0x00, 0x00, 0x66, 0x75, 0x6e, 0x63, 0x74, 0x69, 0x6f, 0x6e, 0x61, 0x6c, 0x5f, 0x31, 0x5f, 0x31, 0x2f, 0x64, 0x65, 0x6e, 0x73, 0x65, 0x5f, 0x34, 0x5f, 0x31, 0x2f, 0x4d, 0x61, 0x74, 0x4d, 0x75, 0x6c, 0x3b, 0x66, 0x75, 0x6e, 0x63, 0x74, 0x69, 0x6f, 0x6e, 0x61, 0x6c, 0x5f, 0x31, 0x5f, 0x31, 0x2f, 0x64, 0x65, 0x6e, 0x73, 0x65, 0x5f, 0x34, 0x5f, 0x31, 0x2f, 0x52, 0x65, 0x6c, 0x75, 0x3b, 0x66, 0x75, 0x6e, 0x63, 0x74, 0x69, 0x6f, 0x6e, 0x61, 0x6c, 0x5f, 0x31, 0x5f, 0x31, 0x2f, 0x64, 0x65, 0x6e, 0x73, 0x65, 0x5f, 0x34, 0x5f, 0x31, 0x2f, 0x42, 0x69, 0x61, 0x73, 0x41, 0x64, 0x64, 0x00, 0x00, 0x02, 0x00, 0x00, 0x00, 0x01, 0x00, 0x00, 0x00, 0x10, 0x00, 0x00, 0x00, 0x3e, 0xff, 0xff, 0xff, 0x00, 0x00, 0x00, 0x01, 0x18, 0x00, 0x00, 0x00, 0x20, 0x00, 0x00, 0x00, 0x40, 0x00, 0x00, 0x00, 0x0b, 0x00, 0x00, 0x00, 0x00, 0x00, 0x00, 0x09, 0x98, 0x00, 0x00, 0x00, 0x02, 0x00, 0x00, 0x00, 0xff, 0xff, 0xff, 0xff, 0x20, 0x00, 0x00, 0x00, 0x8c, 0xf7, 0xff, 0xff, 0x08, 0x00, 0x00, 0x00, 0x14, 0x00, 0x00, 0x00, 0x01, 0x00, 0x00, 0x00, 0x80, 0xff, 0xff, 0xff, 0xff, 0xff, 0xff, 0xff, 0x00, 0x00, 0x00, 0x00, 0x01, 0x00, 0x00, 0x00, 0xb9, 0xd4, 0x95, 0x3c, 0x5e, 0x00, 0x00, 0x00, 0x66, 0x75, 0x6e, 0x63, 0x74, 0x69, 0x6f, 0x6e, 0x61, 0x6c, 0x5f, 0x31, 0x5f, 0x31, 0x2f, 0x64, 0x65, 0x6e, 0x73, 0x65, 0x5f, 0x33, 0x5f, 0x31, 0x2f, 0x4d, 0x61, 0x74, 0x4d, 0x75, 0x6c, 0x3b, 0x66, 0x75, 0x6e, 0x63, 0x74, 0x69, 0x6f, 0x6e, 0x61, 0x6c, 0x5f, 0x31, 0x5f, 0x31, 0x2f, 0x64, 0x65, 0x6e, 0x73, 0x65, 0x5f, 0x33, 0x5f, 0x31, 0x2f, 0x52, 0x65, 0x6c, 0x75, 0x3b, 0x66, 0x75, 0x6e, 0x63, 0x74, 0x69, 0x6f, 0x6e, 0x61, 0x6c, 0x5f, 0x31, 0x5f, 0x31, 0x2f, 0x64, 0x65, 0x6e, 0x73, 0x65, 0x5f, 0x33, 0x5f, 0x31, 0x2f, 0x42, 0x69, 0x61, 0x73, 0x41, 0x64, 0x64, 0x00, 0x00, 0x02, 0x00, 0x00, 0x00, 0x01, 0x00, 0x00, 0x00, 0x20, 0x00, 0x00, 0x00, 0x00, 0x00, 0x16, 0x00, 0x20, 0x00, 0x1c, 0x00, 0x1b, 0x00, 0x14, 0x00, 0x10, 0x00, 0x0c, 0x00, 0x00, 0x00, 0x00, 0x00, 0x08, 0x00, 0x07, 0x00, 0x16, 0x00, 0x00, 0x00, 0x00, 0x00, 0x00, 0x01, 0x18, 0x00, 0x00, 0x00, 0x20, 0x00, 0x00, 0x00, 0x40, 0x00, 0x00, 0x00, 0x0a, 0x00, 0x00, 0x00, 0x00, 0x00, 0x00, 0x09, 0x48, 0x00, 0x00, 0x00, 0x02, 0x00, 0x00, 0x00, 0xff, 0xff, 0xff, 0xff, 0x0b, 0x00, 0x00, 0x00, 0x64, 0xf8, 0xff, 0xff, 0x08, 0x00, 0x00, 0x00, 0x14, 0x00, 0x00, 0x00, 0x01, 0x00, 0x00, 0x00, 0x04, 0x00, 0x00, 0x00, 0x00, 0x00, 0x00, 0x00, 0x00, 0x00, 0x00, 0x00, 0x01, 0x00, 0x00, 0x00, 0x52, 0x5a, 0xb6, 0x3c, 0x0c, 0x00, 0x00, 0x00, 0x74, 0x66, 0x6c, 0x2e, 0x71, 0x75, 0x61, 0x6e, 0x74, 0x69, 0x7a, 0x65, 0x00, 0x00, 0x00, 0x00, 0x02, 0x00, 0x00, 0x00, 0x01, 0x00, 0x00, 0x00, 0x0b, 0x00, 0x00, 0x00, 0xda, 0xf8, 0xff, 0xff, 0x00, 0x00, 0x00, 0x01, 0x14, 0x00, 0x00, 0x00, 0xa8, 0x01, 0x00, 0x00, 0x09, 0x00, 0x00, 0x00, 0x00, 0x00, 0x00, 0x09, 0xb4, 0x01, 0x00, 0x00, 0xc4, 0xf8, 0xff, 0xff, 0x08, 0x00, 0x00, 0x00, 0x0c, 0x01, 0x00, 0x00, 0x20, 0x00, 0x00, 0x00, 0x00, 0x00, 0x00, 0x00, 0x00, 0x00, 0x00, 0x00, 0x00, 0x00, 0x00, 0x00, 0x00, 0x00, 0x00, 0x00, 0x00, 0x00, 0x00, 0x00, 0x00, 0x00, 0x00, 0x00, 0x00, 0x00, 0x00, 0x00, 0x00, 0x00, 0x00, 0x00, 0x00, 0x00, 0x00, 0x00, 0x00, 0x00, 0x00, 0x00, 0x00, 0x00, 0x00, 0x00, 0x00, 0x00, 0x00, 0x00, 0x00, 0x00, 0x00, 0x00, 0x00, 0x00, 0x00, 0x00, 0x00, 0x00, 0x00, 0x00, 0x00, 0x00, 0x00, 0x00, 0x00, 0x00, 0x00, 0x00, 0x00, 0x00, 0x00, 0x00, 0x00, 0x00, 0x00, 0x00, 0x00, 0x00, 0x00, 0x00, 0x00, 0x00, 0x00, 0x00, 0x00, 0x00, 0x00, 0x00, 0x00, 0x00, 0x00, 0x00, 0x00, 0x00, 0x00, 0x00, 0x00, 0x00, 0x00, 0x00, 0x00, 0x00, 0x00, 0x00, 0x00, 0x00, 0x00, 0x00, 0x00, 0x00, 0x00, 0x00, 0x00, 0x00, 0x00, 0x00, 0x00, 0x00, 0x00, 0x00, 0x00, 0x00, 0x00, 0x00, 0x00, 0x00, 0x00, 0x00, 0x00, 0x00, 0x00, 0x00, 0x00, 0x00, 0x00, 0x00, 0x00, 0x00, 0x00, 0x00, 0x00, 0x00, 0x00, 0x00, 0x00, 0x00, 0x00, 0x00, 0x00, 0x00, 0x00, 0x00, 0x00, 0x00, 0x00, 0x00, 0x00, 0x00, 0x00, 0x00, 0x00, 0x00, 0x00, 0x00, 0x00, 0x00, 0x00, 0x00, 0x00, 0x00, 0x00, 0x00, 0x00, 0x00, 0x00, 0x00, 0x00, 0x00, 0x00, 0x00, 0x00, 0x00, 0x00, 0x00, 0x00, 0x00, 0x00, 0x00, 0x00, 0x00, 0x00, 0x00, 0x00, 0x00, 0x00, 0x00, 0x00, 0x00, 0x00, 0x00, 0x00, 0x00, 0x00, 0x00, 0x00, 0x00, 0x00, 0x00, 0x00, 0x00, 0x00, 0x00, 0x00, 0x00, 0x00, 0x00, 0x00, 0x00, 0x00, 0x00, 0x00, 0x00, 0x00, 0x00, 0x00, 0x00, 0x00, 0x00, 0x00, 0x00, 0x00, 0x00, 0x00, 0x00, 0x00, 0x00, 0x00, 0x00, 0x00, 0x00, 0x00, 0x00, 0x00, 0x00, 0x00, 0x00, 0x00, 0x00, 0x00, 0x00, 0x00, 0x00, 0x00, 0x00, 0x00, 0x00, 0x00, 0x00, 0x00, 0x00, 0x20, 0x00, 0x00, 0x00, 0xff, 0xc8, 0x29, 0x3b, 0xf6, 0xfd, 0xac, 0x3b, 0x11, 0xe5, 0x3a, 0x3b, 0x84, 0x1f, 0x93, 0x3b, 0xfb, 0xd0, 0x87, 0x3b, 0xdb, 0x61, 0x51, 0x3b, 0x49, 0xd1, 0x8e, 0x3b, 0xe9, 0xb4, 0xb0, 0x3b, 0x9f, 0x5b, 0x88, 0x3b, 0x12, 0xfc, 0x73, 0x3b, 0x6d, 0x39, 0xa0, 0x3b, 0x36, 0xeb, 0x69, 0x3b, 0x09, 0xf3, 0x7d, 0x3b, 0xfd, 0xef, 0xae, 0x3b, 0x00, 0xe0, 0x8a, 0x3b, 0x1f, 0x9c, 0xd5, 0x3b, 0x11, 0x58, 0xa9, 0x3b, 0x5a, 0x15, 0x90, 0x3b, 0xdd, 0xaa, 0x2a, 0x3b, 0x28, 0xcf, 0x4a, 0x3b, 0x13, 0x92, 0x76, 0x3b, 0xbf, 0x20, 0x6b, 0x3b, 0xf8, 0xb2, 0x6d, 0x3b, 0x63, 0xf4, 0x84, 0x3b, 0x0a, 0x60, 0x42, 0x3b, 0xbe, 0x23, 0x55, 0x3b, 0x08, 0xc2, 0xb1, 0x3b, 0x9e, 0x2c, 0x5d, 0x3b, 0x09, 0xe1, 0x95, 0x3b, 0x7e, 0x93, 0x4c, 0x3b, 0xb5, 0x3b, 0x98, 0x3b, 0x5a, 0xca, 0x0f, 0x3b, 0x12, 0x00, 0x00, 0x00, 0x74, 0x66, 0x6c, 0x2e, 0x70, 0x73, 0x65, 0x75, 0x64, 0x6f, 0x5f, 0x71, 0x63, 0x6f, 0x6e, 0x73, 0x74, 0x37, 0x00, 0x00, 0x02, 0x00, 0x00, 0x00, 0x20, 0x00, 0x00, 0x00, 0x0b, 0x00, 0x00, 0x00, 0xb2, 0xfa, 0xff, 0xff, 0x00, 0x00, 0x00, 0x01, 0x14, 0x00, 0x00, 0x00, 0xa4, 0x01, 0x00, 0x00, 0x08, 0x00, 0x00, 0x00, 0x00, 0x00, 0x00, 0x02, 0xb0, 0x01, 0x00, 0x00, 0x9c, 0xfa, 0xff, 0xff, 0x08, 0x00, 0x00, 0x00, 0x08, 0x01, 0x00, 0x00, 0x20, 0x00, 0x00, 0x00, 0x00, 0x00, 0x00, 0x00, 0x00, 0x00, 0x00, 0x00, 0x00, 0x00, 0x00, 0x00, 0x00, 0x00, 0x00, 0x00, 0x00, 0x00, 0x00, 0x00, 0x00, 0x00, 0x00, 0x00, 0x00, 0x00, 0x00, 0x00, 0x00, 0x00, 0x00, 0x00, 0x00, 0x00, 0x00, 0x00, 0x00, 0x00, 0x00, 0x00, 0x00, 0x00, 0x00, 0x00, 0x00, 0x00, 0x00, 0x00, 0x00, 0x00, 0x00, 0x00, 0x00, 0x00, 0x00, 0x00, 0x00, 0x00, 0x00, 0x00, 0x00, 0x00, 0x00, 0x00, 0x00, 0x00, 0x00, 0x00, 0x00, 0x00, 0x00, 0x00, 0x00, 0x00, 0x00, 0x00, 0x00, 0x00, 0x00, 0x00, 0x00, 0x00, 0x00, 0x00, 0x00, 0x00, 0x00, 0x00, 0x00, 0x00, 0x00, 0x00, 0x00, 0x00, 0x00, 0x00, 0x00, 0x00, 0x00, 0x00, 0x00, 0x00, 0x00, 0x00, 0x00, 0x00, 0x00, 0x00, 0x00, 0x00, 0x00, 0x00, 0x00, 0x00, 0x00, 0x00, 0x00, 0x00, 0x00, 0x00, 0x00, 0x00, 0x00, 0x00, 0x00, 0x00, 0x00, 0x00, 0x00, 0x00, 0x00, 0x00, 0x00, 0x00, 0x00, 0x00, 0x00, 0x00, 0x00, 0x00, 0x00, 0x00, 0x00, 0x00, 0x00, 0x00, 0x00, 0x00, 0x00, 0x00, 0x00, 0x00, 0x00, 0x00, 0x00, 0x00, 0x00, 0x00, 0x00, 0x00, 0x00, 0x00, 0x00, 0x00, 0x00, 0x00, 0x00, 0x00, 0x00, 0x00, 0x00, 0x00, 0x00, 0x00, 0x00, 0x00, 0x00, 0x00, 0x00, 0x00, 0x00, 0x00, 0x00, 0x00, 0x00, 0x00, 0x00, 0x00, 0x00, 0x00, 0x00, 0x00, 0x00, 0x00, 0x00, 0x00, 0x00, 0x00, 0x00, 0x00, 0x00, 0x00, 0x00, 0x00, 0x00, 0x00, 0x00, 0x00, 0x00, 0x00, 0x00, 0x00, 0x00, 0x00, 0x00, 0x00, 0x00, 0x00, 0x00, 0x00, 0x00, 0x00, 0x00, 0x00, 0x00, 0x00, 0x00, 0x00, 0x00, 0x00, 0x00, 0x00, 0x00, 0x00, 0x00, 0x00, 0x00, 0x00, 0x00, 0x00, 0x00, 0x00, 0x00, 0x00, 0x00, 0x00, 0x00, 0x00, 0x00, 0x00, 0x00, 0x00, 0x00, 0x00, 0x00, 0x00, 0x20, 0x00, 0x00, 0x00, 0x99, 0xe1, 0x71, 0x38, 0x2b, 0x73, 0xf6, 0x38, 0xca, 0x20, 0x85, 0x38, 0xa0, 0x98, 0xd1, 0x38, 0xfb, 0x7c, 0xc1, 0x38, 0x71, 0x25, 0x95, 0x38, 0x5a, 0x76, 0xcb, 0x38, 0xec, 0xbd, 0xfb, 0x38, 0x7e, 0x42, 0xc2, 0x38, 0x4a, 0xcb, 0xad, 0x38, 0xb6, 0x42, 0xe4, 0x38, 0xc0, 0x9f, 0xa6, 0x38, 0x61, 0xe4, 0xb4, 0x38, 0xad, 0x38, 0xf9, 0x38, 0x7e, 0xd8, 0xc5, 0x38, 0x5b, 0x28, 0x18, 0x39, 0xb7, 0x40, 0xf1, 0x38, 0x07, 0x44, 0xcd, 0x38, 0x60, 0x23, 0x73, 0x38, 0xd4, 0x76, 0x90, 0x38, 0xd8, 0xa2, 0xaf, 0x38, 0x3d, 0x7c, 0xa7, 0x38, 0x19, 0x51, 0xa9, 0x38, 0x4e, 0x69, 0xbd, 0x38, 0xdb, 0x74, 0x8a, 0x38, 0x9c, 0xd2, 0x97, 0x38, 0x52, 0x3d, 0xfd, 0x38, 0xc1, 0x8b, 0x9d, 0x38, 0xbb, 0x85, 0xd5, 0x38, 0x09, 0xb9, 0x91, 0x38, 0x51, 0xe0, 0xd8, 0x38, 0x2e, 0xd9, 0x4c, 0x38, 0x12, 0x00, 0x00, 0x00, 0x74, 0x66, 0x6c, 0x2e, 0x70, 0x73, 0x65, 0x75, 0x64, 0x6f, 0x5f, 0x71, 0x63, 0x6f, 0x6e, 0x73, 0x74, 0x36, 0x00, 0x00, 0x01, 0x00, 0x00, 0x00, 0x20, 0x00, 0x00, 0x00, 0x82, 0xfc, 0xff, 0xff, 0x00, 0x00, 0x00, 0x01, 0x14, 0x00, 0x00, 0x00, 0xe8, 0x00, 0x00, 0x00, 0x07, 0x00, 0x00, 0x00, 0x00, 0x00, 0x00, 0x09, 0xf4, 0x00, 0x00, 0x00, 0x6c, 0xfc, 0xff, 0xff, 0x08, 0x00, 0x00, 0x00, 0x8c, 0x00, 0x00, 0x00, 0x10, 0x00, 0x00, 0x00, 0x00, 0x00, 0x00, 0x00, 0x00, 0x00, 0x00, 0x00, 0x00, 0x00, 0x00, 0x00, 0x00, 0x00, 0x00, 0x00, 0x00, 0x00, 0x00, 0x00, 0x00, 0x00, 0x00, 0x00, 0x00, 0x00, 0x00, 0x00, 0x00, 0x00, 0x00, 0x00, 0x00, 0x00, 0x00, 0x00, 0x00, 0x00, 0x00, 0x00, 0x00, 0x00, 0x00, 0x00, 0x00, 0x00, 0x00, 0x00, 0x00, 0x00, 0x00, 0x00, 0x00, 0x00, 0x00, 0x00, 0x00, 0x00, 0x00, 0x00, 0x00, 0x00, 0x00, 0x00, 0x00, 0x00, 0x00, 0x00, 0x00, 0x00, 0x00, 0x00, 0x00, 0x00, 0x00, 0x00, 0x00, 0x00, 0x00, 0x00, 0x00, 0x00, 0x00, 0x00, 0x00, 0x00, 0x00, 0x00, 0x00, 0x00, 0x00, 0x00, 0x00, 0x00, 0x00, 0x00, 0x00, 0x00, 0x00, 0x00, 0x00, 0x00, 0x00, 0x00, 0x00, 0x00, 0x00, 0x00, 0x00, 0x00, 0x00, 0x00, 0x00, 0x00, 0x00, 0x00, 0x00, 0x00, 0x00, 0x00, 0x00, 0x00, 0x00, 0x00, 0x00, 0x00, 0x00, 0x00, 0x00, 0x00, 0x00, 0x00, 0x10, 0x00, 0x00, 0x00, 0x42, 0xab, 0xe8, 0x3b, 0xeb, 0xf2, 0x3a, 0x3c, 0x44, 0x64, 0xc0, 0x3b, 0xf2, 0xb9, 0x8c, 0x3b, 0xfe, 0x48, 0x86, 0x3b, 0xcc, 0xd0, 0xcb, 0x3b, 0xd6, 0xb8, 0x11, 0x3c, 0x76, 0x5c, 0x76, 0x3b, 0x83, 0x39, 0x70, 0x3b, 0x3f, 0x6a, 0xa8, 0x3b, 0x83, 0xa7, 0x43, 0x3b, 0xa3, 0x53, 0xfa, 0x3b, 0xb8, 0xcb, 0x76, 0x3b, 0x93, 0x91, 0xce, 0x3b, 0xfe, 0x42, 0x57, 0x3c, 0xce, 0x92, 0x7b, 0x3b, 0x12, 0x00, 0x00, 0x00, 0x74, 0x66, 0x6c, 0x2e, 0x70, 0x73, 0x65, 0x75, 0x64, 0x6f, 0x5f, 0x71, 0x63, 0x6f, 0x6e, 0x73, 0x74, 0x35, 0x00, 0x00, 0x02, 0x00, 0x00, 0x00, 0x10, 0x00, 0x00, 0x00, 0x20, 0x00, 0x00, 0x00, 0x9a, 0xfd, 0xff, 0xff, 0x00, 0x00, 0x00, 0x01, 0x14, 0x00, 0x00, 0x00, 0xe4, 0x00, 0x00, 0x00, 0x06, 0x00, 0x00, 0x00, 0x00, 0x00, 0x00, 0x02, 0xf0, 0x00, 0x00, 0x00, 0x84, 0xfd, 0xff, 0xff, 0x08, 0x00, 0x00, 0x00, 0x88, 0x00, 0x00, 0x00, 0x10, 0x00, 0x00, 0x00, 0x00, 0x00, 0x00, 0x00, 0x00, 0x00, 0x00, 0x00, 0x00, 0x00, 0x00, 0x00, 0x00, 0x00, 0x00, 0x00, 0x00, 0x00, 0x00, 0x00, 0x00, 0x00, 0x00, 0x00, 0x00, 0x00, 0x00, 0x00, 0x00, 0x00, 0x00, 0x00, 0x00, 0x00, 0x00, 0x00, 0x00, 0x00, 0x00, 0x00, 0x00, 0x00, 0x00, 0x00, 0x00, 0x00, 0x00, 0x00, 0x00, 0x00, 0x00, 0x00, 0x00, 0x00, 0x00, 0x00, 0x00, 0x00, 0x00, 0x00, 0x00, 0x00, 0x00, 0x00, 0x00, 0x00, 0x00, 0x00, 0x00, 0x00, 0x00, 0x00, 0x00, 0x00, 0x00, 0x00, 0x00, 0x00, 0x00, 0x00, 0x00, 0x00, 0x00, 0x00, 0x00, 0x00, 0x00, 0x00, 0x00, 0x00, 0x00, 0x00, 0x00, 0x00, 0x00, 0x00, 0x00, 0x00, 0x00, 0x00, 0x00, 0x00, 0x00, 0x00, 0x00, 0x00, 0x00, 0x00, 0x00, 0x00, 0x00, 0x00, 0x00, 0x00, 0x00, 0x00, 0x00, 0x00, 0x00, 0x00, 0x00, 0x00, 0x00, 0x00, 0x00, 0x00, 0x00, 0x00, 0x10, 0x00, 0x00, 0x00, 0x03, 0x2d, 0x08, 0x39, 0x76, 0xd5, 0x5a, 0x39, 0x73, 0x34, 0xe1, 0x38, 0x53, 0xba, 0xa4, 0x38, 0x23, 0x30, 0x9d, 0x38, 0xc6, 0x93, 0xee, 0x38, 0x56, 0x93, 0x2a, 0x39, 0x87, 0x30, 0x90, 0x38, 0x16, 0x99, 0x8c, 0x38, 0x91, 0x23, 0xc5, 0x38, 0x27, 0x06, 0x65, 0x38, 0xb0, 0x82, 0x12, 0x39, 0xa5, 0x71, 0x90, 0x38, 0xc1, 0xcc, 0xf1, 0x38, 0xba, 0xf9, 0x7b, 0x39, 0x7d, 0x3d, 0x93, 0x38, 0x12, 0x00, 0x00, 0x00, 0x74, 0x66, 0x6c, 0x2e, 0x70, 0x73, 0x65, 0x75, 0x64, 0x6f, 0x5f, 0x71, 0x63, 0x6f, 0x6e, 0x73, 0x74, 0x34, 0x00, 0x00, 0x01, 0x00, 0x00, 0x00, 0x10, 0x00, 0x00, 0x00, 0xaa, 0xfe, 0xff, 0xff, 0x00, 0x00, 0x00, 0x01, 0x14, 0x00, 0x00, 0x00, 0x48, 0x00, 0x00, 0x00, 0x05, 0x00, 0x00, 0x00, 0x00, 0x00, 0x00, 0x09, 0x54, 0x00, 0x00, 0x00, 0x94, 0xfe, 0xff, 0xff, 0x08, 0x00, 0x00, 0x00, 0x20, 0x00, 0x00, 0x00, 0x03, 0x00, 0x00, 0x00, 0x00, 0x00, 0x00, 0x00, 0x00, 0x00, 0x00, 0x00, 0x00, 0x00, 0x00, 0x00, 0x00, 0x00, 0x00, 0x00, 0x00, 0x00, 0x00, 0x00, 0x00, 0x00, 0x00, 0x00, 0x03, 0x00, 0x00, 0x00, 0x60, 0x70, 0x10, 0x3c, 0x51, 0x35, 0x03, 0x3c, 0x3f, 0x92, 0xf1, 0x3b, 0x12, 0x00, 0x00, 0x00, 0x74, 0x66, 0x6c, 0x2e, 0x70, 0x73, 0x65, 0x75, 0x64, 0x6f, 0x5f, 0x71, 0x63, 0x6f, 0x6e, 0x73, 0x74, 0x33, 0x00, 0x00, 0x02, 0x00, 0x00, 0x00, 0x03, 0x00, 0x00, 0x00, 0x10, 0x00, 0x00, 0x00, 0x22, 0xff, 0xff, 0xff, 0x00, 0x00, 0x00, 0x01, 0x14, 0x00, 0x00, 0x00, 0x4c, 0x00, 0x00, 0x00, 0x04, 0x00, 0x00, 0x00, 0x00, 0x00, 0x00, 0x02, 0x58, 0x00, 0x00, 0x00, 0x0c, 0xff, 0xff, 0xff, 0x08, 0x00, 0x00, 0x00, 0x24, 0x00, 0x00, 0x00, 0x03, 0x00, 0x00, 0x00, 0x00, 0x00, 0x00, 0x00, 0x00, 0x00, 0x00, 0x00, 0x00, 0x00, 0x00, 0x00, 0x00, 0x00, 0x00, 0x00, 0x00, 0x00, 0x00, 0x00, 0x00, 0x00, 0x00, 0x00, 0x00, 0x00, 0x00, 0x00, 0x03, 0x00, 0x00, 0x00, 0x82, 0x72, 0x30, 0x39, 0xdd, 0x48, 0x20, 0x39, 0x63, 0x8d, 0x13, 0x39, 0x12, 0x00, 0x00, 0x00, 0x74, 0x66, 0x6c, 0x2e, 0x70, 0x73, 0x65, 0x75, 0x64, 0x6f, 0x5f, 0x71, 0x63, 0x6f, 0x6e, 0x73, 0x74, 0x32, 0x00, 0x00, 0x01, 0x00, 0x00, 0x00, 0x03, 0x00, 0x00, 0x00, 0x9a, 0xff, 0xff, 0xff, 0x00, 0x00, 0x00, 0x01, 0x14, 0x00, 0x00, 0x00, 0x34, 0x00, 0x00, 0x00, 0x03, 0x00, 0x00, 0x00, 0x00, 0x00, 0x00, 0x09, 0x40, 0x00, 0x00, 0x00, 0x84, 0xff, 0xff, 0xff, 0x08, 0x00, 0x00, 0x00, 0x14, 0x00, 0x00, 0x00, 0x01, 0x00, 0x00, 0x00, 0x00, 0x00, 0x00, 0x00, 0x00, 0x00, 0x00, 0x00, 0x00, 0x00, 0x00, 0x00, 0x01, 0x00, 0x00, 0x00, 0x2b, 0x04, 0xa1, 0x3b, 0x12, 0x00, 0x00, 0x00, 0x74, 0x66, 0x6c, 0x2e, 0x70, 0x73, 0x65, 0x75, 0x64, 0x6f, 0x5f, 0x71, 0x63, 0x6f, 0x6e, 0x73, 0x74, 0x31, 0x00, 0x00, 0x02, 0x00, 0x00, 0x00, 0x01, 0x00, 0x00, 0x00, 0x10, 0x00, 0x00, 0x00, 0x00, 0x00, 0x16, 0x00, 0x1c, 0x00, 0x18, 0x00, 0x17, 0x00, 0x10, 0x00, 0x0c, 0x00, 0x08, 0x00, 0x00, 0x00, 0x00, 0x00, 0x00, 0x00, 0x07, 0x00, 0x16, 0x00, 0x00, 0x00, 0x00, 0x00, 0x00, 0x01, 0x20, 0x00, 0x00, 0x00, 0x3c, 0x00, 0x00, 0x00, 0x02, 0x00, 0x00, 0x00, 0x00, 0x00, 0x00, 0x02, 0x48, 0x00, 0x00, 0x00, 0x0c, 0x00, 0x0c, 0x00, 0x00, 0x00, 0x00, 0x00, 0x08, 0x00, 0x04, 0x00, 0x0c, 0x00, 0x00, 0x00, 0x08, 0x00, 0x00, 0x00, 0x10, 0x00, 0x00, 0x00, 0x01, 0x00, 0x00, 0x00, 0x00, 0x00, 0x00, 0x00, 0x00, 0x00, 0x00, 0x00, 0x01, 0x00, 0x00, 0x00, 0xbf, 0xb2, 0xc4, 0x38, 0x11, 0x00, 0x00, 0x00, 0x74, 0x66, 0x6c, 0x2e, 0x70, 0x73, 0x65, 0x75, 0x64, 0x6f, 0x5f, 0x71, 0x63, 0x6f, 0x6e, 0x73, 0x74, 0x00, 0x00, 0x00, 0x01, 0x00, 0x00, 0x00, 0x01, 0x00, 0x00, 0x00, 0x00, 0x00, 0x16, 0x00, 0x1c, 0x00, 0x18, 0x00, 0x00, 0x00, 0x14, 0x00, 0x10, 0x00, 0x0c, 0x00, 0x00, 0x00, 0x00, 0x00, 0x08, 0x00, 0x07, 0x00, 0x16, 0x00, 0x00, 0x00, 0x00, 0x00, 0x00, 0x01, 0x14, 0x00, 0x00, 0x00, 0x20, 0x00, 0x00, 0x00, 0x20, 0x00, 0x00, 0x00, 0x01, 0x00, 0x00, 0x00, 0x40, 0x00, 0x00, 0x00, 0x02, 0x00, 0x00, 0x00, 0xff, 0xff, 0xff, 0xff, 0x0b, 0x00, 0x00, 0x00, 0x04, 0x00, 0x04, 0x00, 0x04, 0x00, 0x00, 0x00, 0x20, 0x00, 0x00, 0x00, 0x73, 0x65, 0x72, 0x76, 0x69, 0x6e, 0x67, 0x5f, 0x64, 0x65, 0x66, 0x61, 0x75, 0x6c, 0x74, 0x5f, 0x6b, 0x65, 0x72, 0x61, 0x73, 0x5f, 0x74, 0x65, 0x6e, 0x73, 0x6f, 0x72, 0x5f, 0x34, 0x3a, 0x30, 0x00, 0x00, 0x00, 0x00, 0x02, 0x00, 0x00, 0x00, 0x01, 0x00, 0x00, 0x00, 0x0b, 0x00, 0x00, 0x00, 0x05, 0x00, 0x00, 0x00, 0x6c, 0x00, 0x00, 0x00, 0x4c, 0x00, 0x00, 0x00, 0x2c, 0x00, 0x00, 0x00, 0x18, 0x00, 0x00, 0x00, 0x04, 0x00, 0x00, 0x00, 0xd0, 0xff, 0xff, 0xff, 0x0e, 0x00, 0x00, 0x00, 0x02, 0x00, 0x00, 0x00, 0x00, 0x00, 0x00, 0x0e, 0xe0, 0xff, 0xff, 0xff, 0x06, 0x00, 0x00, 0x00, 0x02, 0x00, 0x00, 0x00, 0x00, 0x00, 0x00, 0x06, 0xf0, 0xff, 0xff, 0xff, 0x19, 0x00, 0x00, 0x00, 0x02, 0x00, 0x00, 0x00, 0x00, 0x00, 0x00, 0x19, 0x0c, 0x00, 0x10, 0x00, 0x0f, 0x00, 0x00, 0x00, 0x08, 0x00, 0x04, 0x00, 0x0c, 0x00, 0x00, 0x00, 0x09, 0x00, 0x00, 0x00, 0x04, 0x00, 0x00, 0x00, 0x00, 0x00, 0x00, 0x09, 0x0c, 0x00, 0x0c, 0x00, 0x0b, 0x00, 0x00, 0x00, 0x00, 0x00, 0x04, 0x00, 0x0c, 0x00, 0x00, 0x00, 0x72, 0x00, 0x00, 0x00, 0x00, 0x00, 0x00, 0x72
};

const unsigned int nirvana_model_data_len = 5960;

#endif // NIRVANA_MODEL_DATA_H
